<unk>	0
<s>	0
</s>	0
▁t	-0
▁th	-1
▁a	-2
▁i	-3
▁the	-4
on	-5
re	-6
at	-7
en	-8
▁w	-9
▁c	-10
▁o	-11
▁s	-12
er	-13
in	-14
▁p	-15
ion	-16
or	-17
▁b	-18
▁m	-19
▁in	-20
▁to	-21
▁of	-22
an	-23
▁f	-24
es	-25
is	-26
▁an	-27
it	-28
ro	-29
al	-30
ed	-31
▁and	-32
ou	-33
ar	-34
ent	-35
ing	-36
▁e	-37
ic	-38
▁h	-39
▁d	-40
▁re	-41
le	-42
▁n	-43
om	-44
▁be	-45
ve	-46
st	-47
▁is	-48
▁that	-49
ct	-50
il	-51
as	-52
ly	-53
ation	-54
▁we	-55
▁on	-56
▁wh	-57
ment	-58
pe	-59
▁for	-60
ot	-61
▁u	-62
▁g	-63
▁l	-64
▁com	-65
▁it	-66
ut	-67
▁pro	-68
se	-69
id	-70
ur	-71
▁con	-72
▁this	-73
▁eu	-74
▁st	-75
ce	-76
ort	-77
ol	-78
▁al	-79
▁de	-80
▁as	-81
ra	-82
res	-83
ld	-84
ri	-85
▁ha	-86
ver	-87
▁are	-88
▁comm	-89
ul	-90
▁euro	-91
et	-92
ith	-93
port	-94
▁with	-95
▁europe	-96
ow	-97
▁not	-98
ch	-99
ould	-100
▁un	-101
ill	-102
▁have	-103
▁su	-104
ate	-105
sion	-106
gh	-107
ir	-108
▁me	-109
oun	-110
ay	-111
li	-112
▁par	-113
ich	-114
▁ne	-115
ity	-116
▁which	-117
op	-118
os	-119
▁european	-120
ble	-121
th	-122
ke	-123
ad	-124
▁y	-125
ive	-126
ter	-127
▁ex	-128
ust	-129
im	-130
ci	-131
▁sh	-132
un	-133
ore	-134
▁will	-135
▁by	-136
▁v	-137
ers	-138
te	-139
mb	-140
ission	-141
ain	-142
qu	-143
ess	-144
▁se	-145
▁im	-146
▁en	-147
▁coun	-148
▁pres	-149
ies	-150
▁at	-151
▁has	-152
▁mr	-153
▁ag	-154
▁commission	-155
ff	-156
ant	-157
est	-158
▁le	-159
ge	-160
ght	-161
▁there	-162
▁res	-163
▁all	-164
ions	-165
am	-166
ure	-167
our	-168
▁so	-169
▁or	-170
iv	-171
so	-172
ere	-173
▁presid	-174
end	-175
pp	-176
rom	-177
ist	-178
▁do	-179
▁pol	-180
▁wor	-181
us	-182
▁can	-183
mber	-184
▁would	-185
▁also	-186
▁am	-187
▁our	-188
▁part	-189
▁ta	-190
ament	-191
▁di	-192
▁reg	-193
▁ch	-194
ect	-195
ard	-196
▁should	-197
▁but	-198
▁li	-199
▁j	-200
od	-201
and	-202
▁r	-203
▁president	-204
um	-205
ally	-206
▁from	-207
ates	-208
ud	-209
▁ad	-210
▁must	-211
very	-212
ations	-213
▁go	-214
▁fa	-215
pport	-216
liament	-217
▁he	-218
▁parliament	-219
der	-220
▁ac	-221
▁ma	-222
ree	-223
▁been	-224
▁you	-225
▁ab	-226
ue	-227
ments	-228
ction	-229
ish	-230
▁count	-231
vel	-232
si	-233
con	-234
ult	-235
▁cont	-236
ans	-237
▁report	-238
ous	-239
out	-240
reat	-241
ome	-242
all	-243
▁us	-244
cial	-245
king	-246
ther	-247
▁union	-248
▁more	-249
▁states	-250
em	-251
oc	-252
cil	-253
▁qu	-254
ig	-255
▁co	-256
ary	-257
▁ri	-258
pos	-259
du	-260
▁member	-261
▁la	-262
ple	-263
▁was	-264
able	-265
▁fin	-266
▁need	-267
▁app	-268
ical	-269
pl	-270
▁right	-271
cess	-272
▁its	-273
▁inc	-274
ose	-275
▁dis	-276
ance	-277
ie	-278
▁these	-279
ren	-280
▁like	-281
▁they	-282
rou	-283
▁their	-284
▁pe	-285
▁council	-286
▁int	-287
▁tr	-288
pt	-289
▁pl	-290
▁cons	-291
▁what	-292
▁import	-293
bl	-294
ll	-295
▁polic	-296
▁how	-297
▁k	-298
au	-299
▁very	-300
▁who	-301
▁pos	-302
▁bec	-303
▁if	-304
ition	-305
und	-306
▁conc	-307
▁no	-308
▁inter	-309
cy	-310
▁one	-311
ru	-312
▁ind	-313
her	-314
▁propos	-315
ong	-316
ens	-317
oin	-318
fore	-319
ries	-320
ational	-321
fic	-322
▁than	-323
▁pre	-324
ution	-325
▁my	-326
ces	-327
me	-328
▁tim	-329
▁man	-330
ced	-331
ear	-332
▁out	-333
for	-334
▁countries	-335
ause	-336
ject	-337
▁other	-338
ence	-339
ry	-340
oint	-341
▁sa	-342
▁commit	-343
▁peop	-344
▁mar	-345
▁work	-346
ated	-347
ms	-348
bil	-349
iti	-350
per	-351
pect	-352
velop	-353
ise	-354
▁bet	-355
▁about	-356
▁develop	-357
▁support	-358
▁mad	-359
▁new	-360
conom	-361
▁ra	-362
ities	-363
▁up	-364
▁spe	-365
get	-366
▁dec	-367
▁agree	-368
▁eff	-369
ac	-370
▁econom	-371
▁important	-372
▁policy	-373
one	-374
ast	-375
are	-376
▁only	-377
▁year	-378
og	-379
ress	-380
▁ev	-381
▁time	-382
▁ob	-383
▁dem	-384
▁under	-385
ern	-386
ag	-387
▁partic	-388
age	-389
ost	-390
▁people	-391
ia	-392
▁tra	-393
▁because	-394
▁leg	-395
el	-396
▁again	-397
ice	-398
▁act	-399
▁ser	-400
▁iss	-401
▁fir	-402
ase	-403
▁proposal	-404
rect	-405
▁now	-406
▁vot	-407
ious	-408
ular	-409
▁comp	-410
▁rec	-411
form	-412
tee	-413
▁inst	-414
▁em	-415
ach	-416
tain	-417
▁any	-418
bility	-419
lear	-420
ign	-421
ention	-422
▁prog	-423
▁such	-424
▁them	-425
▁rights	-426
we	-427
eren	-428
ks	-429
▁some	-430
ap	-431
ric	-432
ever	-433
▁just	-434
▁trans	-435
ures	-436
min	-437
▁prov	-438
▁when	-439
▁therefore	-440
▁fund	-441
▁polit	-442
▁te	-443
▁first	-444
▁point	-445
▁mark	-446
▁sub	-447
▁intern	-448
ame	-449
▁inv	-450
▁those	-451
ial	-452
▁commun	-453
▁however	-454
▁take	-455
ace	-456
ative	-457
▁particular	-458
▁say	-459
sible	-460
▁make	-461
▁per	-462
ted	-463
▁concern	-464
ip	-465
ide	-466
▁min	-467
▁inte	-468
▁ar	-469
▁into	-470
ween	-471
▁between	-472
▁deb	-473
▁direct	-474
▁market	-475
rit	-476
▁ter	-477
roup	-478
▁imp	-479
▁diff	-480
pon	-481
▁ro	-482
▁amend	-483
▁group	-484
gy	-485
▁cl	-486
▁quest	-487
▁economic	-488
ine	-489
sel	-490
▁proble	-491
▁fact	-492
▁acc	-493
lie	-494
▁social	-495
day	-496
de	-497
▁produ	-498
▁being	-499
now	-500
ubl	-501
▁hum	-502
xt	-503
▁fe	-504
▁way	-505
▁sy	-506
▁committee	-507
vern	-508
▁clear	-509
▁belie	-510
ues	-511
ved	-512
red	-513
ives	-514
▁appro	-515
▁str	-516
▁sit	-517
▁human	-518
lud	-519
ob	-520
ating	-521
▁over	-522
ink	-523
ord	-524
▁rel	-525
▁bas	-526
▁political	-527
▁made	-528
▁respon	-529
ep	-530
ving	-531
igh	-532
ural	-533
▁were	-534
ards	-535
▁state	-536
cept	-537
▁great	-538
ublic	-539
act	-540
▁many	-541
rat	-542
ency	-543
▁ref	-544
▁cour	-545
iew	-546
▁want	-547
▁know	-548
eration	-549
▁believe	-550
▁rep	-551
▁development	-552
▁conf	-553
oy	-554
▁govern	-555
eral	-556
▁commissioner	-557
▁disc	-558
▁sp	-559
ian	-560
ision	-561
stem	-562
▁prote	-563
▁finan	-564
▁against	-565
ors	-566
▁pr	-567
▁see	-568
▁op	-569
▁gen	-570
▁system	-571
▁pri	-572
itiz	-573
▁citiz	-574
▁add	-575
▁tw	-576
▁even	-577
▁debate	-578
▁mat	-579
▁meas	-580
ram	-581
ite	-582
ful	-583
uation	-584
▁treat	-585
sure	-586
▁democ	-587
▁mon	-588
if	-589
▁requ	-590
ting	-591
▁af	-592
▁ext	-593
▁bud	-594
▁question	-595
ang	-596
ight	-597
ual	-598
wn	-599
▁budget	-600
▁sec	-601
▁well	-602
ak	-603
▁sol	-604
▁where	-605
▁good	-606
▁public	-607
▁think	-608
▁citizens	-609
ised	-610
▁years	-611
mbers	-612
ertain	-613
▁effect	-614
▁today	-615
▁too	-616
▁env	-617
read	-618
▁nu	-619
▁program	-620
▁agreement	-621
rent	-622
▁incre	-623
▁here	-624
▁every	-625
▁issue	-626
▁national	-627
▁adop	-628
ism	-629
lect	-630
▁consid	-631
▁far	-632
▁high	-633
ope	-634
rest	-635
ploy	-636
▁regul	-637
▁does	-638
▁coop	-639
ire	-640
▁fut	-641
▁country	-642
ough	-643
▁world	-644
oth	-645
▁order	-646
▁resol	-647
▁community	-648
▁regard	-649
▁inform	-650
▁situation	-651
pet	-652
▁future	-653
onment	-654
▁contin	-655
not	-656
ited	-657
uch	-658
▁two	-659
▁includ	-660
▁exp	-661
rib	-662
▁members	-663
▁level	-664
▁view	-665
iven	-666
▁ent	-667
ings	-668
▁cannot	-669
▁envir	-670
▁cur	-671
▁most	-672
▁certain	-673
▁use	-674
▁environment	-675
▁exam	-676
▁had	-677
▁aut	-678
▁could	-679
▁measures	-680
▁same	-681
ific	-682
plement	-683
▁possible	-684
▁tak	-685
rough	-686
ange	-687
▁att	-688
ory	-689
▁financial	-690
ack	-691
▁international	-692
▁gu	-693
▁long	-694
▁through	-695
row	-696
▁said	-697
▁aff	-698
ety	-699
▁end	-700
▁much	-701
▁directive	-702
eur	-703
▁may	-704
ves	-705
utions	-706
low	-707
▁last	-708
▁matter	-709
▁common	-710
ruct	-711
▁put	-712
▁implement	-713
wor	-714
ict	-715
▁const	-716
▁within	-717
ready	-718
▁already	-719
▁interest	-720
▁vote	-721
▁set	-722
isl	-723
▁cooperation	-724
arge	-725
ris	-726
▁result	-727
isation	-728
▁compet	-729
▁process	-730
▁both	-731
▁your	-732
▁ass	-733
ph	-734
▁ach	-735
men	-736
▁achie	-737
▁rem	-738
▁call	-739
ality	-740
▁legisl	-741
▁mrs	-742
▁des	-743
ount	-744
pporteur	-745
▁serv	-746
ority	-747
ild	-748
▁still	-749
▁respect	-750
▁rapporteur	-751
▁present	-752
▁ener	-753
abl	-754
▁def	-755
▁why	-756
eth	-757
▁discus	-758
cond	-759
▁hope	-760
▁beh	-761
▁prev	-762
▁dra	-763
▁neg	-764
▁own	-765
▁instit	-766
▁reas	-767
ove	-768
alth	-769
▁ful	-770
▁col	-771
▁sect	-772
▁energy	-773
ail	-774
ince	-775
▁fra	-776
ices	-777
ute	-778
▁law	-779
▁fur	-780
ract	-781
gan	-782
▁sim	-783
▁ensure	-784
uring	-785
urity	-786
▁auth	-787
▁course	-788
▁thank	-789
▁prin	-790
▁then	-791
▁impro	-792
▁second	-793
▁further	-794
reed	-795
▁sign	-796
ouse	-797
ays	-798
▁taken	-799
▁his	-800
▁action	-801
▁reason	-802
▁differen	-803
▁hel	-804
▁princi	-805
▁area	-806
ile	-807
▁object	-808
ass	-809
ration	-810
air	-811
▁current	-812
ood	-813
▁since	-814
▁able	-815
▁case	-816
▁security	-817
▁prom	-818
▁without	-819
▁pers	-820
▁tur	-821
itions	-822
▁health	-823
▁saf	-824
▁car	-825
▁protection	-826
▁est	-827
▁necess	-828
▁place	-829
▁br	-830
ents	-831
▁rul	-832
work	-833
alf	-834
▁main	-835
▁information	-836
▁strate	-837
ind	-838
orities	-839
▁organ	-840
▁repres	-841
ov	-842
▁maj	-843
▁problem	-844
mit	-845
▁cond	-846
▁help	-847
▁house	-848
cing	-849
▁employ	-850
▁med	-851
▁treaty	-852
ici	-853
▁means	-854
ck	-855
▁proced	-856
hip	-857
▁number	-858
ied	-859
▁lad	-860
▁speci	-861
▁indust	-862
▁before	-863
▁gent	-864
▁ask	-865
▁wom	-866
▁gentle	-867
▁sm	-868
▁legal	-869
▁region	-870
▁allow	-871
lu	-872
oo	-873
▁wel	-874
▁example	-875
art	-876
▁stand	-877
chn	-878
▁deal	-879
▁gentlemen	-880
▁given	-881
▁ladies	-882
▁consum	-883
▁invol	-884
▁amendments	-885
▁government	-886
▁fol	-887
ether	-888
▁initi	-889
▁after	-890
ab	-891
▁problems	-892
▁follow	-893
come	-894
oti	-895
itive	-896
▁form	-897
▁rules	-898
▁let	-899
ft	-900
▁ke	-901
pportun	-902
▁opportun	-903
▁democrat	-904
▁negoti	-905
▁particularly	-906
man	-907
▁redu	-908
gin	-909
▁aw	-910
oura	-911
ty	-912
▁consider	-913
own	-914
▁fav	-915
▁programme	-916
ning	-917
▁madam	-918
▁necessary	-919
ately	-920
▁accept	-921
▁resolution	-922
ene	-923
ability	-924
▁issues	-925
ablish	-926
self	-927
▁equ	-928
▁give	-929
▁united	-930
▁trade	-931
olog	-932
▁som	-933
▁wish	-934
▁gl	-935
▁fish	-936
▁av	-937
ential	-938
ds	-939
ently	-940
▁areas	-941
▁position	-942
▁real	-943
▁invest	-944
▁off	-945
▁establish	-946
▁fore	-947
illion	-948
▁presidency	-949
▁frame	-950
▁conv	-951
▁decision	-952
▁techn	-953
▁lead	-954
icult	-955
▁whether	-956
▁sc	-957
▁meet	-958
land	-959
iz	-960
▁product	-961
▁specific	-962
▁rat	-963
ines	-964
▁difficult	-965
▁sector	-966
sibility	-967
▁aid	-968
▁framework	-969
▁increas	-970
▁cent	-971
▁es	-972
▁cre	-973
▁cris	-974
▁different	-975
▁contro	-976
arch	-977
▁ban	-978
▁opin	-979
ricult	-980
▁services	-981
▁favour	-982
▁thir	-983
▁pow	-984
▁agricult	-985
les	-986
▁provid	-987
▁next	-988
▁women	-989
▁proposals	-990
bour	-991
isions	-992
ten	-993
▁progress	-994
▁contrib	-995
▁suc	-996
▁val	-997
▁represent	-998
▁role	-999
▁subject	-1000
▁behalf	-1001
ources	-1002
▁serious	-1003
▁nat	-1004
▁amendment	-1005
▁fr	-1006
▁cap	-1007
arm	-1008
▁terms	-1009
▁basis	-1010
ward	-1011
▁regulation	-1012
▁elect	-1013
ound	-1014
▁promot	-1015
▁effort	-1016
pa	-1017
▁pract	-1018
▁loo	-1019
▁crit	-1020
▁rest	-1021
wards	-1022
▁grow	-1023
▁third	-1024
▁done	-1025
▁ap	-1026
▁aim	-1027
▁better	-1028
▁hand	-1029
▁effective	-1030
cu	-1031
▁come	-1032
▁account	-1033
sions	-1034
rodu	-1035
erence	-1036
▁crisis	-1037
▁adopted	-1038
tic	-1039
▁legislation	-1040
▁open	-1041
▁mod	-1042
▁happ	-1043
▁vi	-1044
ne	-1045
stand	-1046
tern	-1047
▁rese	-1048
fit	-1049
▁imm	-1050
▁approach	-1051
▁comple	-1052
▁change	-1053
▁inf	-1054
▁bal	-1055
▁needs	-1056
ister	-1057
other	-1058
ication	-1059
▁strategy	-1060
▁rev	-1061
▁transport	-1062
led	-1063
▁few	-1064
vers	-1065
▁tal	-1066
▁institutions	-1067
lig	-1068
pri	-1069
▁soci	-1070
▁exist	-1071
▁po	-1072
▁sch	-1073
▁cor	-1074
eng	-1075
▁freed	-1076
▁continue	-1077
▁constit	-1078
▁whole	-1079
round	-1080
▁research	-1081
▁fundament	-1082
▁opinion	-1083
▁general	-1084
▁find	-1085
▁ur	-1086
▁mention	-1087
▁freedom	-1088
▁glob	-1089
▁project	-1090
▁working	-1091
selves	-1092
ital	-1093
▁employment	-1094
▁oper	-1095
▁job	-1096
▁three	-1097
▁ris	-1098
ts	-1099
ared	-1100
▁appl	-1101
▁cost	-1102
▁adv	-1103
▁concerned	-1104
aran	-1105
racy	-1106
▁tax	-1107
▁bus	-1108
▁forward	-1109
▁get	-1110
▁plan	-1111
▁person	-1112
▁improve	-1113
▁another	-1114
▁going	-1115
▁child	-1116
▁welcome	-1117
▁cri	-1118
ething	-1119
▁control	-1120
▁during	-1121
ered	-1122
▁something	-1123
▁back	-1124
▁towards	-1125
▁fundamental	-1126
▁ess	-1127
▁global	-1128
leg	-1129
▁bene	-1130
▁express	-1131
▁partn	-1132
ually	-1133
▁expl	-1134
▁guaran	-1135
▁pur	-1136
▁small	-1137
▁step	-1138
gether	-1139
▁voted	-1140
▁commissions	-1141
▁relations	-1142
▁exper	-1143
▁remain	-1144
ros	-1145
▁cult	-1146
▁industry	-1147
cially	-1148
▁simp	-1149
ically	-1150
▁struct	-1151
▁safety	-1152
▁achieve	-1153
▁ide	-1154
atives	-1155
▁clearly	-1156
▁affair	-1157
▁var	-1158
▁conditions	-1159
▁ins	-1160
▁resources	-1161
▁her	-1162
▁procedure	-1163
▁principle	-1164
▁integ	-1165
mes	-1166
▁finally	-1167
▁pay	-1168
▁peace	-1169
▁compan	-1170
ily	-1171
ways	-1172
▁bl	-1173
▁access	-1174
▁together	-1175
▁including	-1176
▁minister	-1177
▁free	-1178
ising	-1179
iness	-1180
▁introdu	-1181
▁prep	-1182
▁move	-1183
▁down	-1184
old	-1185
▁did	-1186
arity	-1187
▁discuss	-1188
▁success	-1189
▁importance	-1190
▁proposed	-1191
▁opportunity	-1192
▁accord	-1193
▁really	-1194
▁shall	-1195
▁funds	-1196
ret	-1197
▁once	-1198
uc	-1199
com	-1200
▁million	-1201
▁while	-1202
▁ed	-1203
▁authorities	-1204
▁policies	-1205
als	-1206
▁sum	-1207
▁ir	-1208
▁espe	-1209
▁affairs	-1210
▁strong	-1211
▁pa	-1212
ror	-1213
▁provide	-1214
▁especially	-1215
▁inde	-1216
▁less	-1217
▁used	-1218
▁yet	-1219
▁read	-1220
ath	-1221
▁increase	-1222
▁quite	-1223
▁internal	-1224
▁food	-1225
▁parliaments	-1226
▁environmental	-1227
▁play	-1228
ral	-1229
ogn	-1230
▁reach	-1231
▁understand	-1232
▁rather	-1233
▁lib	-1234
▁negotiations	-1235
▁recogn	-1236
▁colle	-1237
ussi	-1238
▁bu	-1239
▁greater	-1240
stain	-1241
▁viol	-1242
▁cong	-1243
av	-1244
▁activ	-1245
tle	-1246
rant	-1247
▁democracy	-1248
ases	-1249
ying	-1250
▁responsibility	-1251
sequ	-1252
fe	-1253
▁stren	-1254
▁become	-1255
▁itself	-1256
light	-1257
▁products	-1258
▁text	-1259
▁suff	-1260
gth	-1261
▁regions	-1262
▁strength	-1263
ivid	-1264
▁least	-1265
ross	-1266
▁bring	-1267
▁reform	-1268
▁business	-1269
bon	-1270
gg	-1271
▁writ	-1272
▁democratic	-1273
▁instru	-1274
▁unf	-1275
▁addition	-1276
ances	-1277
▁large	-1278
▁supp	-1279
▁russi	-1280
▁indeed	-1281
▁sing	-1282
▁show	-1283
▁extre	-1284
ists	-1285
▁dist	-1286
▁partners	-1287
iod	-1288
ness	-1289
▁speak	-1290
▁comb	-1291
ified	-1292
ening	-1293
▁war	-1294
▁ple	-1295
ield	-1296
▁protect	-1297
▁require	-1298
▁making	-1299
▁having	-1300
▁demand	-1301
▁always	-1302
▁appropri	-1303
▁growth	-1304
aking	-1305
▁never	-1306
▁attention	-1307
▁essential	-1308
ordin	-1309
▁things	-1310
▁civ	-1311
▁taking	-1312
ys	-1313
▁society	-1314
ater	-1315
▁look	-1316
▁opp	-1317
▁positive	-1318
▁power	-1319
▁artic	-1320
iving	-1321
▁prevent	-1322
ences	-1323
▁based	-1324
▁lim	-1325
▁clos	-1326
oney	-1327
▁major	-1328
▁each	-1329
▁implementation	-1330
▁interests	-1331
▁benefit	-1332
▁civil	-1333
▁single	-1334
▁educ	-1335
▁eur	-1336
▁various	-1337
▁ca	-1338
▁fight	-1339
▁efforts	-1340
▁economy	-1341
▁alth	-1342
▁ph	-1343
ible	-1344
▁enc	-1345
▁terror	-1346
▁although	-1347
▁offic	-1348
ulation	-1349
▁money	-1350
▁air	-1351
▁signific	-1352
▁adopt	-1353
▁abs	-1354
▁coh	-1355
lim	-1356
▁oc	-1357
▁enl	-1358
▁short	-1359
▁fail	-1360
▁chang	-1361
▁points	-1362
ium	-1363
▁aspect	-1364
▁rece	-1365
alog	-1366
ples	-1367
ased	-1368
▁colleag	-1369
▁bar	-1370
▁month	-1371
▁extreme	-1372
▁following	-1373
▁address	-1374
▁bro	-1375
rency	-1376
▁words	-1377
▁among	-1378
▁foreign	-1379
ick	-1380
aps	-1381
▁competition	-1382
omm	-1383
▁manage	-1384
▁ear	-1385
▁sustain	-1386
▁workers	-1387
▁proper	-1388
▁creat	-1389
▁ru	-1390
gu	-1391
utional	-1392
▁court	-1393
ages	-1394
▁children	-1395
▁transpa	-1396
▁full	-1397
▁dep	-1398
ead	-1399
▁individ	-1400
▁period	-1401
▁expect	-1402
▁regional	-1403
ics	-1404
ption	-1405
▁emph	-1406
▁mil	-1407
▁consequ	-1408
▁field	-1409
thing	-1410
alogue	-1411
▁involved	-1412
▁wee	-1413
▁agreements	-1414
▁chall	-1415
▁concerns	-1416
▁sw	-1417
ining	-1418
text	-1419
▁seem	-1420
▁groups	-1421
▁feel	-1422
▁programmes	-1423
▁joint	-1424
ened	-1425
utes	-1426
▁congrat	-1427
▁certainly	-1428
▁objective	-1429
▁nor	-1430
▁article	-1431
▁congratul	-1432
▁stat	-1433
▁companies	-1434
▁mean	-1435
▁lis	-1436
▁objectives	-1437
▁request	-1438
ined	-1439
▁individual	-1440
ged	-1441
▁loc	-1442
▁close	-1443
▁care	-1444
cise	-1445
▁sur	-1446
▁pop	-1447
▁lisbon	-1448
ug	-1449
ably	-1450
▁affect	-1451
▁encoura	-1452
▁quality	-1453
▁subst	-1454
▁pass	-1455
▁best	-1456
▁non	-1457
▁technolog	-1458
▁force	-1459
▁increasing	-1460
▁requi	-1461
▁ann	-1462
ended	-1463
▁conclu	-1464
▁agricultural	-1465
▁decisions	-1466
▁recent	-1467
raph	-1468
▁emphas	-1469
▁appe	-1470
▁fully	-1471
▁experi	-1472
▁often	-1473
▁solution	-1474
▁pen	-1475
▁majority	-1476
▁standards	-1477
▁refer	-1478
▁fisher	-1479
▁avail	-1480
▁justice	-1481
▁mo	-1482
▁fam	-1483
▁simply	-1484
▁ele	-1485
▁ec	-1486
▁enlarge	-1487
sw	-1488
▁mot	-1489
▁dialogue	-1490
▁coordin	-1491
▁det	-1492
kes	-1493
▁clim	-1494
▁farm	-1495
▁list	-1496
▁name	-1497
ither	-1498
ried	-1499
icient	-1500
▁education	-1501
ner	-1502
▁questions	-1503
▁char	-1504
thers	-1505
hing	-1506
▁vis	-1507
ceed	-1508
▁bel	-1509
▁special	-1510
oub	-1511
▁answ	-1512
▁sure	-1513
▁begin	-1514
▁harm	-1515
▁initiative	-1516
▁extremely	-1517
idence	-1518
▁turke	-1519
▁significant	-1520
▁monit	-1521
▁aware	-1522
▁east	-1523
ense	-1524
ib	-1525
uge	-1526
▁others	-1527
▁production	-1528
▁context	-1529
▁party	-1530
▁solid	-1531
▁agend	-1532
▁assist	-1533
▁rule	-1534
▁life	-1535
▁climate	-1536
▁perh	-1537
▁comprom	-1538
▁perhaps	-1539
▁kind	-1540
▁ret	-1541
▁fl	-1542
▁dat	-1543
▁enlargement	-1544
ned	-1545
▁recomm	-1546
ending	-1547
▁convention	-1548
▁found	-1549
▁create	-1550
▁particip	-1551
▁concerning	-1552
mination	-1553
rate	-1554
▁start	-1555
▁developing	-1556
▁risk	-1557
▁might	-1558
▁assess	-1559
▁central	-1560
ortun	-1561
▁actually	-1562
▁admin	-1563
▁ago	-1564
ime	-1565
▁agenda	-1566
▁docu	-1567
▁complete	-1568
▁port	-1569
▁impact	-1570
▁unions	-1571
▁unfortun	-1572
▁decl	-1573
most	-1574
▁hon	-1575
▁currently	-1576
ech	-1577
▁fle	-1578
▁guarantee	-1579
▁day	-1580
▁jobs	-1581
▁gre	-1582
▁indep	-1583
ec	-1584
▁mentioned	-1585
▁consumers	-1586
▁ori	-1587
▁available	-1588
ensive	-1589
▁lit	-1590
pose	-1591
▁summit	-1592
▁tar	-1593
▁meeting	-1594
▁draft	-1595
equ	-1596
▁sou	-1597
▁apply	-1598
▁oppos	-1599
▁priv	-1600
cell	-1601
ix	-1602
▁results	-1603
▁stability	-1604
▁ger	-1605
orth	-1606
used	-1607
▁consumer	-1608
▁appropriate	-1609
▁governments	-1610
▁administ	-1611
▁secondly	-1612
▁foc	-1613
▁liberal	-1614
▁rom	-1615
▁urg	-1616
ering	-1617
ock	-1618
▁conference	-1619
less	-1620
ina	-1621
arian	-1622
til	-1623
ino	-1624
▁draw	-1625
▁management	-1626
ification	-1627
▁mor	-1628
ling	-1629
▁net	-1630
rict	-1631
▁data	-1632
▁labour	-1633
ps	-1634
▁responsible	-1635
▁turkey	-1636
▁reports	-1637
▁sta	-1638
sid	-1639
eria	-1640
▁months	-1641
▁pat	-1642
▁firstly	-1643
cession	-1644
▁el	-1645
pes	-1646
eric	-1647
its	-1648
▁systems	-1649
▁doing	-1650
▁cases	-1651
▁appli	-1652
▁key	-1653
▁monitor	-1654
▁confl	-1655
▁themselves	-1656
▁four	-1657
ession	-1658
erv	-1659
▁inn	-1660
cies	-1661
▁matters	-1662
▁dut	-1663
▁writing	-1664
clear	-1665
▁immig	-1666
▁solidarity	-1667
▁needed	-1668
▁him	-1669
▁independ	-1670
▁principles	-1671
▁regarding	-1672
▁thing	-1673
▁mom	-1674
▁recommend	-1675
be	-1676
▁german	-1677
▁tot	-1678
ibility	-1679
lev	-1680
▁enough	-1681
▁reasons	-1682
ident	-1683
▁russia	-1684
▁parties	-1685
▁final	-1686
go	-1687
▁above	-1688
▁compromise	-1689
aring	-1690
▁hist	-1691
▁build	-1692
▁keep	-1693
▁conflict	-1694
▁projects	-1695
▁stud	-1696
▁excell	-1697
iveness	-1698
▁according	-1699
▁contain	-1700
over	-1701
eless	-1702
▁though	-1703
▁trad	-1704
mor	-1705
▁demon	-1706
▁jud	-1707
wh	-1708
▁costs	-1709
▁occ	-1710
▁broad	-1711
oung	-1712
▁tas	-1713
▁young	-1714
▁she	-1715
▁regards	-1716
▁origin	-1717
▁nothing	-1718
▁unfortunately	-1719
▁peoples	-1720
▁oblig	-1721
▁longer	-1722
▁maintain	-1723
▁local	-1724
▁americ	-1725
order	-1726
▁threat	-1727
▁demonst	-1728
▁past	-1729
▁structural	-1730
▁achieved	-1731
▁entire	-1732
▁yes	-1733
atory	-1734
▁afric	-1735
▁funding	-1736
ave	-1737
▁activities	-1738
ided	-1739
▁reject	-1740
▁lack	-1741
▁priority	-1742
▁sever	-1743
▁id	-1744
gn	-1745
▁moment	-1746
▁cohes	-1747
▁nuclear	-1748
to	-1749
▁deter	-1750
▁sustainable	-1751
▁commitment	-1752
▁due	-1753
▁investment	-1754
ale	-1755
iter	-1756
▁legislative	-1757
▁idea	-1758
vious	-1759
▁true	-1760
▁enter	-1761
▁anim	-1762
▁little	-1763
por	-1764
▁head	-1765
▁promote	-1766
▁obvious	-1767
▁mult	-1768
ify	-1769
▁low	-1770
▁agriculture	-1771
ggest	-1772
▁suggest	-1773
▁bo	-1774
▁stress	-1775
▁thus	-1776
▁markets	-1777
ane	-1778
▁provided	-1779
▁several	-1780
▁cred	-1781
▁road	-1782
▁nations	-1783
▁amb	-1784
▁congratulate	-1785
▁safe	-1786
▁extern	-1787
ises	-1788
▁line	-1789
ators	-1790
▁conclud	-1791
ody	-1792
▁cohesion	-1793
▁bur	-1794
▁doub	-1795
▁excellent	-1796
▁target	-1797
▁uni	-1798
rated	-1799
▁obs	-1800
pr	-1801
▁transparency	-1802
▁vict	-1803
▁ident	-1804
▁sep	-1805
▁external	-1806
side	-1807
▁previous	-1808
▁fair	-1809
▁organis	-1810
▁include	-1811
▁exc	-1812
ends	-1813
inoff	-1814
▁service	-1815
▁innov	-1816
▁pack	-1817
employ	-1818
▁uk	-1819
▁fisheries	-1820
▁budgetary	-1821
▁eas	-1822
▁communication	-1823
mpt	-1824
▁desp	-1825
▁item	-1826
inoffice	-1827
▁subsid	-1828
▁integration	-1829
▁sci	-1830
▁aspects	-1831
▁share	-1832
▁makes	-1833
▁agreed	-1834
▁tomor	-1835
▁tomorrow	-1836
ark	-1837
▁absol	-1838
▁ve	-1839
▁il	-1840
fully	-1841
atic	-1842
ert	-1843
▁focus	-1844
edi	-1845
▁dang	-1846
▁z	-1847
aged	-1848
▁seen	-1849
▁meth	-1850
▁impos	-1851
▁tabl	-1852
▁absolute	-1853
imum	-1854
▁detail	-1855
▁soon	-1856
itary	-1857
▁amount	-1858
▁pot	-1859
▁ens	-1860
soci	-1861
iation	-1862
▁until	-1863
▁ty	-1864
▁sl	-1865
▁cir	-1866
▁actions	-1867
ring	-1868
▁technical	-1869
ides	-1870
▁cru	-1871
▁comes	-1872
atis	-1873
ension	-1874
erous	-1875
nect	-1876
ims	-1877
▁method	-1878
▁relation	-1879
▁colleagues	-1880
▁terrorism	-1881
▁response	-1882
▁circ	-1883
▁voting	-1884
▁upon	-1885
ived	-1886
▁contribution	-1887
▁ital	-1888
▁accession	-1889
▁associ	-1890
▁continu	-1891
ants	-1892
▁population	-1893
▁everyone	-1894
▁cod	-1895
▁review	-1896
ledge	-1897
▁lat	-1898
▁regulations	-1899
▁partnership	-1900
▁discussion	-1901
atisf	-1902
▁harmon	-1903
▁values	-1904
▁crimin	-1905
▁brit	-1906
bilities	-1907
▁post	-1908
▁elections	-1909
▁prof	-1910
▁changes	-1911
▁violence	-1912
verty	-1913
▁poverty	-1914
▁criteria	-1915
▁times	-1916
▁provisions	-1917
tees	-1918
▁practice	-1919
▁seems	-1920
▁mind	-1921
ons	-1922
▁existing	-1923
chan	-1924
▁answer	-1925
▁despite	-1926
anced	-1927
▁assistance	-1928
▁mechan	-1929
▁ver	-1930
▁defin	-1931
▁procedures	-1932
▁pleased	-1933
▁equal	-1934
▁lang	-1935
co	-1936
▁precise	-1937
▁er	-1938
▁consult	-1939
▁avo	-1940
rial	-1941
▁grant	-1942
▁everything	-1943
▁isra	-1944
▁tell	-1945
▁pal	-1946
▁cho	-1947
▁left	-1948
etary	-1949
▁mis	-1950
▁ourselves	-1951
tempt	-1952
ications	-1953
▁along	-1954
term	-1955
▁green	-1956
▁hard	-1957
▁illeg	-1958
▁eus	-1959
▁dest	-1960
▁statement	-1961
▁bank	-1962
▁del	-1963
▁unemploy	-1964
▁cultural	-1965
▁gree	-1966
▁water	-1967
▁farmers	-1968
▁term	-1969
▁guid	-1970
ond	-1971
▁facil	-1972
▁creation	-1973
▁quick	-1974
▁wast	-1975
▁crucial	-1976
erg	-1977
▁basic	-1978
▁military	-1979
▁monetary	-1980
▁increased	-1981
▁organisations	-1982
▁training	-1983
▁strateg	-1984
ier	-1985
▁saying	-1986
ourable	-1987
▁talk	-1988
▁repe	-1989
▁opportunities	-1990
▁flex	-1991
▁interv	-1992
▁carried	-1993
▁week	-1994
▁instead	-1995
ression	-1996
ania	-1997
▁relating	-1998
▁emission	-1999
▁asked	-2000
▁consequences	-2001
▁traff	-2002
▁tabled	-2003
▁eng	-2004
▁connect	-2005
fer	-2006
▁cam	-2007
▁ge	-2008
▁fishing	-2009
▁held	-2010
▁fall	-2011
istic	-2012
▁langu	-2013
▁challeng	-2014
▁ground	-2015
▁namely	-2016
▁europes	-2017
▁application	-2018
▁requirements	-2019
▁balance	-2020
▁instrument	-2021
▁throughout	-2022
▁reduce	-2023
sp	-2024
▁home	-2025
▁gener	-2026
▁parliamentary	-2027
▁active	-2028
▁sense	-2029
▁cut	-2030
by	-2031
▁either	-2032
irm	-2033
iting	-2034
▁undert	-2035
▁attempt	-2036
▁required	-2037
▁carry	-2038
ians	-2039
▁instruments	-2040
▁presented	-2041
sels	-2042
▁disast	-2043
▁china	-2044
▁speech	-2045
itarian	-2046
▁highlight	-2047
▁den	-2048
▁monitoring	-2049
▁remin	-2050
▁constitution	-2051
▁immedi	-2052
ef	-2053
▁territ	-2054
new	-2055
▁fell	-2056
▁value	-2057
▁face	-2058
▁closed	-2059
▁nature	-2060
▁fun	-2061
▁retur	-2062
ruction	-2063
▁join	-2064
▁discri	-2065
▁stage	-2066
▁anal	-2067
aration	-2068
uly	-2069
▁movement	-2070
▁correct	-2071
▁around	-2072
▁priorities	-2073
▁cross	-2074
▁thanks	-2075
▁initiatives	-2076
ars	-2077
▁old	-2078
▁regret	-2079
▁stop	-2080
▁model	-2081
▁purs	-2082
ighbour	-2083
▁traffic	-2084
▁wa	-2085
▁neighbour	-2086
▁called	-2087
more	-2088
▁doubt	-2089
ont	-2090
mitted	-2091
▁hold	-2092
yl	-2093
▁jun	-2094
▁satisf	-2095
▁dam	-2096
▁live	-2097
▁super	-2098
▁five	-2099
ateral	-2100
▁indic	-2101
▁prot	-2102
▁culture	-2103
rast	-2104
▁capital	-2105
line	-2106
▁star	-2107
▁furthermore	-2108
rection	-2109
encies	-2110
▁prepared	-2111
▁decided	-2112
▁scient	-2113
▁competit	-2114
▁six	-2115
ctions	-2116
▁avoid	-2117
forms	-2118
▁minutes	-2119
▁bre	-2120
▁effici	-2121
▁using	-2122
▁pros	-2123
rought	-2124
▁export	-2125
orders	-2126
uses	-2127
▁task	-2128
▁exch	-2129
▁mid	-2130
▁pressure	-2131
▁pric	-2132
▁san	-2133
▁encourage	-2134
▁cy	-2135
ilateral	-2136
▁turn	-2137
▁package	-2138
▁recently	-2139
▁experience	-2140
▁defence	-2141
▁lear	-2142
▁reached	-2143
▁potential	-2144
▁rural	-2145
▁death	-2146
▁ce	-2147
▁powers	-2148
rench	-2149
▁expressed	-2150
▁raised	-2151
▁mess	-2152
▁talking	-2153
▁immigration	-2154
▁levels	-2155
▁across	-2156
ges	-2157
▁illegal	-2158
▁criminal	-2159
▁waste	-2160
▁sectors	-2161
▁challenges	-2162
▁genu	-2163
▁conclusion	-2164
▁genuine	-2165
ought	-2166
▁borders	-2167
▁deli	-2168
▁document	-2169
▁ministers	-2170
theless	-2171
▁nevertheless	-2172
▁palest	-2173
▁reading	-2174
▁parag	-2175
▁implemented	-2176
▁fellow	-2177
▁ever	-2178
▁involve	-2179
▁medium	-2180
pris	-2181
▁try	-2182
▁crime	-2183
▁deleg	-2184
▁ire	-2185
ished	-2186
▁reflect	-2187
▁whose	-2188
uel	-2189
▁included	-2190
▁light	-2191
▁dece	-2192
▁ireland	-2193
▁absolutely	-2194
▁victims	-2195
▁direction	-2196
▁coming	-2197
rad	-2198
▁vital	-2199
▁billion	-2200
▁link	-2201
▁private	-2202
▁relev	-2203
▁paragraph	-2204
▁renew	-2205
▁aud	-2206
▁dri	-2207
▁quot	-2208
▁french	-2209
▁run	-2210
▁quickly	-2211
▁swed	-2212
▁established	-2213
▁sea	-2214
▁reduction	-2215
▁ant	-2216
▁capac	-2217
▁enable	-2218
▁reality	-2219
▁republic	-2220
▁note	-2221
▁top	-2222
reg	-2223
▁che	-2224
▁cla	-2225
▁effects	-2226
ize	-2227
▁outside	-2228
ung	-2229
▁administr	-2230
▁ira	-2231
▁supported	-2232
▁representatives	-2233
liance	-2234
▁remind	-2235
den	-2236
▁almost	-2237
▁reforms	-2238
▁guidel	-2239
▁condu	-2240
▁critic	-2241
reh	-2242
ilar	-2243
▁big	-2244
▁compl	-2245
▁tour	-2246
sibilities	-2247
▁organisation	-2248
▁emissions	-2249
▁coordination	-2250
▁unemployment	-2251
ub	-2252
▁event	-2253
▁completely	-2254
▁official	-2255
▁rapporteurs	-2256
▁cand	-2257
▁dise	-2258
▁moreover	-2259
▁giving	-2260
▁price	-2261
▁motion	-2262
▁becom	-2263
▁industrial	-2264
▁except	-2265
▁prices	-2266
of	-2267
▁brought	-2268
▁iraq	-2269
▁similar	-2270
pid	-2271
▁men	-2272
▁opt	-2273
▁respond	-2274
▁candid	-2275
▁dev	-2276
▁competitiveness	-2277
▁unac	-2278
rane	-2279
anish	-2280
▁dim	-2281
▁additional	-2282
▁businesses	-2283
▁france	-2284
▁vol	-2285
▁authority	-2286
iterrane	-2287
▁perspect	-2288
rely	-2289
▁word	-2290
▁consist	-2291
itional	-2292
iterranean	-2293
mental	-2294
▁ensuring	-2295
just	-2296
versity	-2297
▁press	-2298
▁paper	-2299
▁total	-2300
▁extent	-2301
imes	-2302
▁gra	-2303
▁cause	-2304
erve	-2305
▁took	-2306
▁circum	-2307
▁agency	-2308
▁received	-2309
▁parts	-2310
▁possibility	-2311
▁applied	-2312
▁democrats	-2313
▁december	-2314
▁natural	-2315
inking	-2316
▁living	-2317
▁test	-2318
▁mand	-2319
app	-2320
▁heard	-2321
▁chr	-2322
rug	-2323
▁approved	-2324
▁creating	-2325
▁south	-2326
▁tack	-2327
▁recon	-2328
▁fig	-2329
▁ten	-2330
▁guidelines	-2331
▁conduct	-2332
▁behind	-2333
▁discussions	-2334
▁else	-2335
▁portug	-2336
▁assessment	-2337
arily	-2338
▁analys	-2339
▁leaders	-2340
▁away	-2341
▁treatment	-2342
▁disp	-2343
▁restrict	-2344
▁practical	-2345
▁unaccept	-2346
▁confidence	-2347
▁discussed	-2348
▁influ	-2349
▁red	-2350
▁relevant	-2351
▁events	-2352
▁takes	-2353
▁sitting	-2354
▁lot	-2355
entions	-2356
▁aust	-2357
ially	-2358
▁drug	-2359
▁adoption	-2360
▁strengthen	-2361
ler	-2362
▁dom	-2363
▁bi	-2364
▁africa	-2365
▁offer	-2366
▁obviously	-2367
▁rail	-2368
▁days	-2369
ylum	-2370
▁asylum	-2371
▁humanitarian	-2372
▁knowledge	-2373
▁refuge	-2374
▁british	-2375
▁remains	-2376
▁unacceptable	-2377
▁innovation	-2378
orm	-2379
▁rein	-2380
ison	-2381
▁provision	-2382
ator	-2383
force	-2384
acy	-2385
▁technology	-2386
▁media	-2387
anu	-2388
di	-2389
▁sent	-2390
▁capacity	-2391
▁poll	-2392
▁met	-2393
use	-2394
▁family	-2395
▁scientific	-2396
istan	-2397
itud	-2398
▁goods	-2399
▁author	-2400
▁measure	-2401
▁solutions	-2402
▁eval	-2403
▁precisely	-2404
▁honourable	-2405
▁discrimination	-2406
▁mig	-2407
▁huge	-2408
▁und	-2409
▁proceed	-2410
▁los	-2411
ging	-2412
▁scope	-2413
prises	-2414
rastruct	-2415
▁infrastruct	-2416
▁land	-2417
▁weak	-2418
▁function	-2419
▁altern	-2420
ster	-2421
uted	-2422
▁christ	-2423
▁considered	-2424
▁design	-2425
▁combat	-2426
▁substant	-2427
▁condem	-2428
equate	-2429
▁depend	-2430
▁exer	-2431
know	-2432
▁affected	-2433
▁effectively	-2434
▁return	-2435
▁israel	-2436
▁reference	-2437
▁eth	-2438
▁aimed	-2439
▁institutional	-2440
▁efficiency	-2441
unch	-2442
▁cat	-2443
▁circumst	-2444
▁independent	-2445
▁sel	-2446
lling	-2447
▁administrative	-2448
▁argu	-2449
▁trying	-2450
▁supply	-2451
▁penal	-2452
▁firm	-2453
▁difficulties	-2454
▁safegu	-2455
▁oil	-2456
ool	-2457
▁fri	-2458
▁improving	-2459
▁contribute	-2460
la	-2461
▁rate	-2462
ously	-2463
▁explain	-2464
▁equality	-2465
▁obtain	-2466
▁confirm	-2467
▁personal	-2468
▁sk	-2469
▁half	-2470
enge	-2471
▁conclusions	-2472
vere	-2473
ban	-2474
▁developed	-2475
▁clar	-2476
▁occas	-2477
▁qual	-2478
▁shown	-2479
▁content	-2480
alled	-2481
▁forces	-2482
wise	-2483
lusion	-2484
▁wr	-2485
▁june	-2486
▁overall	-2487
▁concept	-2488
▁limit	-2489
ization	-2490
endit	-2491
▁hung	-2492
▁bri	-2493
▁circumstances	-2494
terday	-2495
▁side	-2496
▁modern	-2497
▁message	-2498
▁accordance	-2499
▁connection	-2500
▁spo	-2501
▁yesterday	-2502
▁palestin	-2503
▁providing	-2504
▁mass	-2505
▁produc	-2506
ination	-2507
▁investig	-2508
▁calls	-2509
▁enterprises	-2510
▁specifically	-2511
ograph	-2512
zed	-2513
ven	-2514
rary	-2515
▁ill	-2516
▁kos	-2517
▁alloc	-2518
▁advant	-2519
▁status	-2520
▁committed	-2521
val	-2522
▁implementing	-2523
▁brus	-2524
crib	-2525
▁bure	-2526
▁minimum	-2527
▁wrong	-2528
▁comments	-2529
▁allowed	-2530
▁asse	-2531
▁reme	-2532
isc	-2533
▁beginning	-2534
▁goes	-2535
▁poor	-2536
▁created	-2537
▁considerable	-2538
▁challenge	-2539
▁kosov	-2540
▁provides	-2541
▁pla	-2542
▁consideration	-2543
▁promoting	-2544
gar	-2545
▁regime	-2546
▁benefits	-2547
up	-2548
way	-2549
▁rightly	-2550
▁duty	-2551
▁cover	-2552
▁bureau	-2553
▁accepted	-2554
▁participation	-2555
ha	-2556
▁date	-2557
▁purpose	-2558
▁history	-2559
▁mut	-2560
lands	-2561
▁councils	-2562
▁construct	-2563
▁successful	-2564
▁determin	-2565
erial	-2566
lt	-2567
▁propose	-2568
▁bey	-2569
▁convin	-2570
▁brussels	-2571
▁forms	-2572
▁beyond	-2573
▁cust	-2574
▁strategic	-2575
▁cha	-2576
▁compreh	-2577
▁lives	-2578
itim	-2579
▁stated	-2580
▁chair	-2581
▁views	-2582
▁thought	-2583
▁plans	-2584
▁germany	-2585
▁wto	-2586
▁bul	-2587
▁famil	-2588
ins	-2589
▁dealing	-2590
▁seriously	-2591
▁closely	-2592
▁relig	-2593
▁emerg	-2594
▁referred	-2595
uro	-2596
▁tem	-2597
▁cop	-2598
▁worth	-2599
▁pact	-2600
▁weeks	-2601
dle	-2602
ash	-2603
▁prim	-2604
▁longterm	-2605
▁spir	-2606
▁urgent	-2607
▁hear	-2608
ively	-2609
▁self	-2610
▁receive	-2611
▁fear	-2612
vernmental	-2613
▁constitutional	-2614
▁ones	-2615
▁financing	-2616
ological	-2617
▁sens	-2618
ousand	-2619
▁speaking	-2620
▁colleague	-2621
▁steps	-2622
▁former	-2623
▁border	-2624
▁thousand	-2625
▁explo	-2626
▁material	-2627
▁travel	-2628
▁commer	-2629
▁simpli	-2630
▁decide	-2631
▁annual	-2632
▁legitim	-2633
▁expendit	-2634
▁introduction	-2635
dom	-2636
isms	-2637
▁emb	-2638
▁wanted	-2639
▁gas	-2640
▁cro	-2641
▁interp	-2642
▁ways	-2643
▁counter	-2644
itude	-2645
▁relationship	-2646
▁soc	-2647
▁bod	-2648
lier	-2649
▁seek	-2650
▁directly	-2651
▁setting	-2652
▁commitments	-2653
apt	-2654
sec	-2655
itious	-2656
itation	-2657
▁happen	-2658
▁tourism	-2659
▁lar	-2660
▁rapid	-2661
▁requires	-2662
▁exchange	-2663
▁lu	-2664
▁police	-2665
▁expenditure	-2666
▁stri	-2667
hold	-2668
▁mediterranean	-2669
▁ukra	-2670
paign	-2671
works	-2672
▁brief	-2673
▁campaign	-2674
▁somet	-2675
▁demands	-2676
▁mill	-2677
▁budgets	-2678
▁produce	-2679
▁anything	-2680
▁irish	-2681
▁deg	-2682
action	-2683
▁exact	-2684
▁leave	-2685
▁custom	-2686
▁prime	-2687
▁activity	-2688
▁contract	-2689
▁adapt	-2690
▁sufficient	-2691
▁veh	-2692
▁age	-2693
▁concent	-2694
▁sometimes	-2695
▁cle	-2696
▁myself	-2697
anuary	-2698
▁fulf	-2699
▁looking	-2700
▁intended	-2701
▁january	-2702
▁vo	-2703
▁middle	-2704
▁animal	-2705
▁supporting	-2706
ev	-2707
▁natur	-2708
▁perspective	-2709
ken	-2710
▁sort	-2711
ron	-2712
▁europeans	-2713
▁representative	-2714
▁eastern	-2715
sized	-2716
▁distrib	-2717
dam	-2718
▁useful	-2719
▁comment	-2720
▁paid	-2721
▁deep	-2722
▁incor	-2723
▁chance	-2724
▁highly	-2725
ender	-2726
▁schem	-2727
ocol	-2728
▁developments	-2729
▁efficient	-2730
body	-2731
▁bodies	-2732
▁secret	-2733
▁alone	-2734
rants	-2735
▁referen	-2736
▁competitive	-2737
▁march	-2738
▁kosovo	-2739
▁mediumsized	-2740
▁establishing	-2741
▁office	-2742
▁collect	-2743
▁ship	-2744
▁austri	-2745
▁combating	-2746
▁properly	-2747
▁led	-2748
▁higher	-2749
▁internet	-2750
▁risks	-2751
▁remember	-2752
▁north	-2753
anim	-2754
▁histor	-2755
▁superv	-2756
▁shows	-2757
▁prob	-2758
▁conclude	-2759
▁strengthening	-2760
▁limited	-2761
▁achieving	-2762
▁increasingly	-2763
▁statements	-2764
▁staff	-2765
▁ambitious	-2766
▁early	-2767
▁gain	-2768
▁forget	-2769
▁improved	-2770
▁discussing	-2771
▁calling	-2772
▁type	-2773
▁reducing	-2774
▁known	-2775
▁pursu	-2776
▁directives	-2777
▁profession	-2778
▁prevention	-2779
▁vehic	-2780
▁sal	-2781
▁wat	-2782
▁opposition	-2783
▁comprehensive	-2784
▁unanim	-2785
▁arr	-2786
▁whom	-2787
▁complex	-2788
▁caused	-2789
▁awa	-2790
head	-2791
▁gives	-2792
he	-2793
▁welcom	-2794
hol	-2795
▁delegation	-2796
where	-2797
▁represents	-2798
ury	-2799
▁study	-2800
▁greece	-2801
▁documents	-2802
▁later	-2803
▁repl	-2804
▁producers	-2805
▁contrary	-2806
▁happened	-2807
▁consens	-2808
▁aims	-2809
▁iran	-2810
▁spirit	-2811
ake	-2812
▁won	-2813
▁bad	-2814
ze	-2815
▁profit	-2816
▁animals	-2817
ira	-2818
▁produced	-2819
▁trust	-2820
reci	-2821
▁safeguard	-2822
▁ult	-2823
▁urge	-2824
▁emphasise	-2825
ours	-2826
urope	-2827
▁acknow	-2828
border	-2829
▁earlier	-2830
▁pet	-2831
▁mer	-2832
imately	-2833
▁transfer	-2834
▁compens	-2835
making	-2836
▁infrastructure	-2837
▁audit	-2838
▁currency	-2839
▁manner	-2840
▁enorm	-2841
▁convinced	-2842
▁candidate	-2843
▁charter	-2844
▁outcome	-2845
▁language	-2846
ired	-2847
▁committees	-2848
acks	-2849
▁building	-2850
▁enh	-2851
▁fraud	-2852
▁cooper	-2853
▁facilit	-2854
▁crossborder	-2855
ized	-2856
▁socalled	-2857
▁passeng	-2858
▁balanced	-2859
▁recognition	-2860
▁wants	-2861
▁fre	-2862
rete	-2863
ciliation	-2864
▁extra	-2865
▁sport	-2866
▁school	-2867
▁declaration	-2868
▁otherwise	-2869
▁analysis	-2870
▁dimension	-2871
▁appreci	-2872
▁standard	-2873
▁rise	-2874
▁consensus	-2875
▁concrete	-2876
▁dangerous	-2877
▁thinking	-2878
▁launch	-2879
▁thirdly	-2880
▁constant	-2881
▁coll	-2882
▁says	-2883
▁recognise	-2884
▁damage	-2885
▁network	-2886
▁elements	-2887
▁alternative	-2888
▁tri	-2889
lies	-2890
▁succeed	-2891
vered	-2892
▁flexibility	-2893
▁acceptable	-2894
▁influence	-2895
▁arm	-2896
ateg	-2897
▁dead	-2898
portion	-2899
▁king	-2900
▁entirely	-2901
▁spanish	-2902
▁heart	-2903
uations	-2904
▁delay	-2905
▁occur	-2906
▁becoming	-2907
▁introduce	-2908
▁differences	-2909
▁willing	-2910
▁pointed	-2911
▁laws	-2912
▁susp	-2913
▁facing	-2914
▁introduced	-2915
ann	-2916
ource	-2917
▁networks	-2918
▁refugees	-2919
▁negative	-2920
▁reduced	-2921
▁structure	-2922
▁weap	-2923
lines	-2924
▁added	-2925
▁recommendations	-2926
▁obst	-2927
▁tool	-2928
istics	-2929
▁liberalisation	-2930
▁opening	-2931
▁commercial	-2932
uff	-2933
▁italy	-2934
▁globalisation	-2935
olid	-2936
▁arrange	-2937
▁american	-2938
▁naturally	-2939
ped	-2940
▁probably	-2941
ber	-2942
ught	-2943
▁univers	-2944
▁closer	-2945
▁applause	-2946
▁sources	-2947
▁slov	-2948
▁belg	-2949
tember	-2950
▁asking	-2951
▁sex	-2952
limin	-2953
▁strict	-2954
▁record	-2955
▁speed	-2956
estic	-2957
ters	-2958
aging	-2959
gest	-2960
ored	-2961
▁establishment	-2962
bly	-2963
▁announ	-2964
az	-2965
▁assum	-2966
fact	-2967
▁spain	-2968
▁separ	-2969
▁treaties	-2970
omp	-2971
▁forest	-2972
▁september	-2973
dra	-2974
oot	-2975
▁protocol	-2976
▁raise	-2977
▁fed	-2978
▁disch	-2979
▁sanctions	-2980
▁transparent	-2981
▁administration	-2982
▁body	-2983
▁exactly	-2984
▁company	-2985
▁mist	-2986
▁intervention	-2987
▁failure	-2988
▁mechanism	-2989
▁methods	-2990
▁conver	-2991
ca	-2992
▁practices	-2993
▁commissioners	-2994
ufact	-2995
▁persons	-2996
▁strongly	-2997
▁sen	-2998
▁incorpor	-2999
▁turk	-3000
▁manufact	-3001
cup	-3002
▁intel	-3003
▁applies	-3004
▁contact	-3005
unt	-3006
iction	-3007
▁integrated	-3008
▁fif	-3009
▁secure	-3010
idents	-3011
▁bear	-3012
▁loss	-3013
▁governance	-3014
▁hop	-3015
▁drawn	-3016
▁nove	-3017
▁ideas	-3018
▁subsidi	-3019
▁medic	-3020
uropean	-3021
▁round	-3022
ility	-3023
▁mal	-3024
▁agencies	-3025
▁meps	-3026
▁institution	-3027
▁oct	-3028
▁acqu	-3029
▁ign	-3030
▁november	-3031
acter	-3032
urd	-3033
ilst	-3034
urance	-3035
▁finance	-3036
▁withdra	-3037
▁whilst	-3038
▁applic	-3039
lus	-3040
▁happy	-3041
▁reply	-3042
▁exception	-3043
ories	-3044
oph	-3045
▁targets	-3046
▁laid	-3047
estern	-3048
▁dealt	-3049
▁putting	-3050
▁improvement	-3051
▁palestinian	-3052
▁chamber	-3053
ones	-3054
▁norm	-3055
▁romania	-3056
▁resolutions	-3057
▁constructive	-3058
▁submitted	-3059
▁defend	-3060
▁defic	-3061
▁enormous	-3062
▁excess	-3063
ervation	-3064
▁mutual	-3065
▁communities	-3066
▁character	-3067
▁tun	-3068
▁critical	-3069
nam	-3070
▁written	-3071
▁intergo	-3072
▁appeal	-3073
▁immediately	-3074
▁operation	-3075
ank	-3076
▁addressed	-3077
▁america	-3078
▁informed	-3079
▁organised	-3080
erent	-3081
▁kingdom	-3082
▁obligations	-3083
▁association	-3084
▁div	-3085
▁mission	-3086
▁mandate	-3087
▁explan	-3088
▁morning	-3089
ger	-3090
▁growing	-3091
▁italian	-3092
▁debates	-3093
▁sensitive	-3094
▁lo	-3095
▁enabl	-3096
ology	-3097
▁todays	-3098
▁consultation	-3099
▁describ	-3100
▁thousands	-3101
▁gender	-3102
▁managed	-3103
▁independence	-3104
▁contains	-3105
▁mechanisms	-3106
▁understanding	-3107
▁choice	-3108
▁sad	-3109
ij	-3110
▁send	-3111
▁western	-3112
▁wid	-3113
coming	-3114
ik	-3115
▁ahead	-3116
▁unable	-3117
▁recommendation	-3118
▁mainly	-3119
ober	-3120
▁board	-3121
▁sound	-3122
▁belar	-3123
▁prospect	-3124
▁referend	-3125
▁definition	-3126
▁october	-3127
▁cal	-3128
▁comply	-3129
▁ukraine	-3130
▁rejected	-3131
▁pati	-3132
▁neither	-3133
▁simple	-3134
▁freedoms	-3135
▁positions	-3136
▁merely	-3137
fect	-3138
▁occup	-3139
▁insist	-3140
▁renewable	-3141
▁continuing	-3142
▁anyone	-3143
▁easy	-3144
▁abol	-3145
vereign	-3146
▁near	-3147
▁leading	-3148
ream	-3149
▁faced	-3150
▁sovereign	-3151
▁prison	-3152
▁guarantees	-3153
▁goals	-3154
▁intention	-3155
▁discharge	-3156
itable	-3157
▁smes	-3158
icial	-3159
▁votes	-3160
rs	-3161
▁signed	-3162
joy	-3163
▁christian	-3164
▁turkish	-3165
▁obser	-3166
▁promotion	-3167
▁drugs	-3168
▁evidence	-3169
▁substantial	-3170
sterdam	-3171
▁membership	-3172
▁enjoy	-3173
▁react	-3174
▁adequate	-3175
▁figures	-3176
▁pill	-3177
▁belarus	-3178
aries	-3179
▁bureauc	-3180
▁payments	-3181
▁amsterdam	-3182
▁centre	-3183
▁instance	-3184
▁repeat	-3185
▁categ	-3186
inding	-3187
▁russian	-3188
▁elected	-3189
▁speakers	-3190
▁impossible	-3191
ees	-3192
▁resolve	-3193
▁exercise	-3194
▁worked	-3195
▁includes	-3196
▁technologies	-3197
▁appear	-3198
▁subsidiarity	-3199
▁pension	-3200
▁lost	-3201
▁told	-3202
▁disaster	-3203
▁please	-3204
ade	-3205
▁came	-3206
▁trafficking	-3207
antic	-3208
gen	-3209
▁wonder	-3210
set	-3211
ush	-3212
▁max	-3213
▁ought	-3214
ets	-3215
▁socialist	-3216
▁totally	-3217
▁adver	-3218
hood	-3219
▁advantage	-3220
▁table	-3221
▁approval	-3222
▁adjust	-3223
▁front	-3224
▁assure	-3225
▁credit	-3226
▁perman	-3227
▁regular	-3228
ton	-3229
▁hy	-3230
▁warm	-3231
▁bringing	-3232
▁weapons	-3233
▁desire	-3234
▁fuel	-3235
▁wishes	-3236
▁families	-3237
▁summ	-3238
ature	-3239
engen	-3240
hern	-3241
▁situations	-3242
▁assemb	-3243
▁related	-3244
▁economies	-3245
▁afgh	-3246
▁degree	-3247
▁failed	-3248
▁attitude	-3249
▁schengen	-3250
mp	-3251
enary	-3252
▁burden	-3253
▁controls	-3254
lled	-3255
▁rates	-3256
▁expression	-3257
▁supports	-3258
▁womens	-3259
ourage	-3260
▁condemn	-3261
▁income	-3262
▁territory	-3263
tedly	-3264
ulated	-3265
▁acts	-3266
▁serb	-3267
▁grate	-3268
▁forth	-3269
ias	-3270
▁linked	-3271
▁van	-3272
▁extend	-3273
▁getting	-3274
que	-3275
▁der	-3276
▁grateful	-3277
illed	-3278
▁talks	-3279
▁publ	-3280
uth	-3281
▁exec	-3282
▁disease	-3283
orse	-3284
▁election	-3285
▁ton	-3286
respon	-3287
▁protecting	-3288
▁involvement	-3289
▁involving	-3290
▁learn	-3291
▁perform	-3292
▁plenary	-3293
▁complain	-3294
icated	-3295
▁actual	-3296
prus	-3297
fare	-3298
bur	-3299
▁lines	-3300
ats	-3301
▁opposed	-3302
▁obstac	-3303
▁afghan	-3304
▁cyprus	-3305
▁decisionmaking	-3306
wide	-3307
▁log	-3308
▁adopting	-3309
▁starting	-3310
▁banks	-3311
arks	-3312
▁goal	-3313
▁perfect	-3314
▁balk	-3315
▁sides	-3316
oor	-3317
▁element	-3318
▁immediate	-3319
▁jour	-3320
overy	-3321
▁nos	-3322
▁proportion	-3323
mission	-3324
▁consolid	-3325
▁diversity	-3326
▁truly	-3327
▁rele	-3328
▁original	-3329
▁forced	-3330
▁claim	-3331
▁auditors	-3332
▁ready	-3333
sman	-3334
▁gr	-3335
▁barro	-3336
stit	-3337
▁referendum	-3338
▁mobility	-3339
▁happening	-3340
▁consequently	-3341
▁nort	-3342
▁lif	-3343
▁vice	-3344
▁undermin	-3345
▁personally	-3346
▁arms	-3347
▁interesting	-3348
▁rad	-3349
▁customs	-3350
▁ii	-3351
▁foot	-3352
fication	-3353
▁recognised	-3354
▁greatest	-3355
▁via	-3356
▁northern	-3357
▁poland	-3358
▁granted	-3359
▁tempor	-3360
▁wide	-3361
▁followed	-3362
▁undertaking	-3363
pres	-3364
▁minorities	-3365
lantic	-3366
plom	-3367
▁oral	-3368
▁intend	-3369
▁exem	-3370
ya	-3371
▁portugal	-3372
▁volunt	-3373
▁meetings	-3374
ocks	-3375
▁diplom	-3376
▁appoint	-3377
▁assembly	-3378
▁evaluation	-3379
▁seeking	-3380
fied	-3381
ivity	-3382
icians	-3383
▁tackle	-3384
▁african	-3385
▁july	-3386
▁substances	-3387
▁vehicles	-3388
▁shared	-3389
rain	-3390
els	-3391
nes	-3392
▁pollution	-3393
ior	-3394
arations	-3395
▁judicial	-3396
ruption	-3397
▁covered	-3398
▁danger	-3399
▁ey	-3400
▁tele	-3401
▁dict	-3402
▁bulgar	-3403
▁vir	-3404
▁recovery	-3405
▁carefully	-3406
▁ability	-3407
▁ste	-3408
▁amongst	-3409
▁equally	-3410
▁subsidies	-3411
▁stock	-3412
▁harmonisation	-3413
rates	-3414
▁labe	-3415
itime	-3416
▁lies	-3417
▁advoc	-3418
▁manufacture	-3419
▁heads	-3420
▁bilateral	-3421
▁proposing	-3422
▁maritime	-3423
▁competence	-3424
▁designed	-3425
lement	-3426
ana	-3427
▁continues	-3428
▁changed	-3429
▁detailed	-3430
▁criticism	-3431
▁generally	-3432
▁none	-3433
▁works	-3434
aken	-3435
▁path	-3436
▁minority	-3437
▁suffering	-3438
inks	-3439
▁presence	-3440
▁disapp	-3441
▁range	-3442
▁thereby	-3443
▁courage	-3444
▁tob	-3445
▁improvements	-3446
na	-3447
▁arri	-3448
▁continent	-3449
▁serve	-3450
nic	-3451
ots	-3452
▁taxation	-3453
orn	-3454
ril	-3455
ma	-3456
▁structures	-3457
▁sole	-3458
▁uns	-3459
▁swedish	-3460
▁hours	-3461
agen	-3462
▁sha	-3463
▁exclud	-3464
▁voice	-3465
▁binding	-3466
▁emphasis	-3467
▁pra	-3468
▁floor	-3469
▁spent	-3470
▁professional	-3471
▁causes	-3472
enced	-3473
atically	-3474
▁series	-3475
▁je	-3476
▁attack	-3477
▁consistent	-3478
▁don	-3479
▁consumption	-3480
undred	-3481
erves	-3482
▁aver	-3483
▁endorse	-3484
ift	-3485
ote	-3486
▁employees	-3487
▁planning	-3488
▁hundred	-3489
▁sweden	-3490
▁late	-3491
▁arrest	-3492
omen	-3493
▁diver	-3494
▁heav	-3495
▁meant	-3496
▁lux	-3497
standing	-3498
▁expected	-3499
▁credibility	-3500
▁withdraw	-3501
ruit	-3502
▁moving	-3503
▁entit	-3504
▁limits	-3505
▁politicians	-3506
▁lastly	-3507
▁delight	-3508
▁reasonable	-3509
▁lay	-3510
▁regulatory	-3511
urs	-3512
▁lea	-3513
▁experts	-3514
▁april	-3515
▁languages	-3516
▁inh	-3517
▁repeated	-3518
▁fulfil	-3519
▁permanent	-3520
going	-3521
▁conciliation	-3522
▁religious	-3523
▁lower	-3524
▁stru	-3525
▁session	-3526
▁cz	-3527
▁draf	-3528
▁debt	-3529
▁option	-3530
riers	-3531
▁pm	-3532
▁compar	-3533
▁prosper	-3534
inary	-3535
▁enforce	-3536
▁arrangements	-3537
▁stake	-3538
▁unless	-3539
▁maximum	-3540
entially	-3541
using	-3542
▁destro	-3543
org	-3544
▁immigrants	-3545
▁terrorist	-3546
▁entry	-3547
▁greek	-3548
lam	-3549
enh	-3550
▁decis	-3551
▁initial	-3552
▁visit	-3553
▁domestic	-3554
▁compensation	-3555
ping	-3556
▁encouraging	-3557
▁glad	-3558
▁alliance	-3559
▁politics	-3560
▁participate	-3561
▁whate	-3562
ta	-3563
▁gave	-3564
▁whatever	-3565
▁num	-3566
▁factors	-3567
▁czech	-3568
▁started	-3569
ook	-3570
▁ultimately	-3571
ott	-3572
▁disappoint	-3573
▁white	-3574
▁obligation	-3575
tered	-3576
omb	-3577
▁migration	-3578
▁bulgaria	-3579
▁attacks	-3580
▁factor	-3581
▁source	-3582
▁functioning	-3583
▁contributions	-3584
▁easier	-3585
▁grounds	-3586
▁visa	-3587
▁barroso	-3588
▁signal	-3589
lation	-3590
▁welfare	-3591
pro	-3592
mark	-3593
▁pt	-3594
▁omb	-3595
▁ombud	-3596
▁voluntary	-3597
▁speaker	-3598
▁tobac	-3599
▁apart	-3600
▁belong	-3601
▁code	-3602
▁temporary	-3603
iff	-3604
▁compliance	-3605
▁dign	-3606
▁flexible	-3607
▁har	-3608
sibly	-3609
▁crimes	-3610
▁elimin	-3611
▁feed	-3612
▁news	-3613
▁appears	-3614
ulate	-3615
▁conflicts	-3616
▁roma	-3617
enhagen	-3618
▁ut	-3619
gence	-3620
▁inclusion	-3621
▁trading	-3622
▁prefer	-3623
▁delighted	-3624
▁investments	-3625
▁gradu	-3626
▁opinions	-3627
▁respected	-3628
▁inad	-3629
reness	-3630
▁interpret	-3631
▁restrictions	-3632
▁facilitate	-3633
rep	-3634
▁citizen	-3635
▁numerous	-3636
▁imposed	-3637
poses	-3638
ifying	-3639
ls	-3640
certain	-3641
▁century	-3642
▁tobacco	-3643
▁occasion	-3644
▁fighting	-3645
▁supplement	-3646
▁pun	-3647
▁chairman	-3648
▁appropriations	-3649
▁labelling	-3650
▁awareness	-3651
iss	-3652
▁noneth	-3653
▁construction	-3654
▁proposes	-3655
▁nonetheless	-3656
▁submit	-3657
▁coast	-3658
▁millions	-3659
▁vul	-3660
▁helping	-3661
actory	-3662
▁operations	-3663
fy	-3664
▁prior	-3665
▁capable	-3666
▁fourth	-3667
teed	-3668
▁worse	-3669
▁spending	-3670
emb	-3671
▁diseases	-3672
▁guaranteed	-3673
▁issu	-3674
bourg	-3675
lying	-3676
pol	-3677
▁sud	-3678
▁partner	-3679
▁wider	-3680
▁negotiating	-3681
asbourg	-3682
▁vicepres	-3683
▁payment	-3684
▁technological	-3685
rating	-3686
comm	-3687
▁forthcoming	-3688
▁requirement	-3689
based	-3690
▁traditional	-3691
ratic	-3692
ox	-3693
▁win	-3694
▁tasks	-3695
▁allowing	-3696
▁saving	-3697
▁vulner	-3698
▁interested	-3699
▁strasbourg	-3700
pping	-3701
▁placed	-3702
▁likely	-3703
▁luxemb	-3704
▁copenhagen	-3705
▁impl	-3706
▁hence	-3707
▁continued	-3708
ival	-3709
▁ecu	-3710
▁truth	-3711
▁individuals	-3712
▁scheme	-3713
uting	-3714
▁scale	-3715
▁solve	-3716
etherlands	-3717
▁netherlands	-3718
▁rig	-3719
▁incent	-3720
▁impose	-3721
▁examples	-3722
ancing	-3723
▁hor	-3724
▁ky	-3725
▁purposes	-3726
▁resolved	-3727
▁codec	-3728
ourg	-3729
▁ara	-3730
ervations	-3731
▁slow	-3732
▁contrad	-3733
▁sexual	-3734
▁quant	-3735
▁letter	-3736
iet	-3737
▁peaceful	-3738
▁separate	-3739
▁luxembourg	-3740
▁chem	-3741
▁rich	-3742
▁acp	-3743
orial	-3744
▁thor	-3745
▁poore	-3746
▁attach	-3747
▁bat	-3748
▁croat	-3749
▁settle	-3750
▁defined	-3751
▁estim	-3752
▁electron	-3753
▁disasters	-3754
▁smo	-3755
▁effectiveness	-3756
onia	-3757
▁existence	-3758
▁distribution	-3759
▁deliver	-3760
▁black	-3761
▁afghanistan	-3762
cast	-3763
▁break	-3764
▁et	-3765
▁remo	-3766
▁codecision	-3767
▁remarks	-3768
▁exists	-3769
▁airport	-3770
▁associated	-3771
▁demonstrate	-3772
▁demonstrated	-3773
▁officials	-3774
▁corruption	-3775
▁ves	-3776
▁thorough	-3777
▁balkans	-3778
▁electric	-3779
▁nato	-3780
▁operators	-3781
▁imag	-3782
rich	-3783
▁occasions	-3784
▁evening	-3785
lated	-3786
▁protected	-3787
▁bra	-3788
▁statistics	-3789
▁space	-3790
▁georg	-3791
ills	-3792
▁ber	-3793
▁baltic	-3794
▁retain	-3795
▁benefic	-3796
ari	-3797
▁restruct	-3798
▁vicepresident	-3799
▁flow	-3800
▁base	-3801
▁primarily	-3802
fin	-3803
▁relative	-3804
ese	-3805
▁knows	-3806
▁tried	-3807
▁equip	-3808
hib	-3809
▁rac	-3810
▁pie	-3811
icate	-3812
▁cub	-3813
▁chemical	-3814
▁operate	-3815
▁legitimate	-3816
▁vision	-3817
▁contained	-3818
lied	-3819
▁dy	-3820
ming	-3821
▁portugues	-3822
▁tro	-3823
▁host	-3824
▁undoub	-3825
▁revision	-3826
▁average	-3827
▁entitled	-3828
▁dou	-3829
▁friend	-3830
ishing	-3831
▁concluded	-3832
▁hands	-3833
cri	-3834
▁definite	-3835
▁miss	-3836
▁toler	-3837
ilt	-3838
arent	-3839
▁justified	-3840
▁portuguese	-3841
▁spread	-3842
elt	-3843
icit	-3844
▁amounts	-3845
▁frequ	-3846
▁passengers	-3847
▁youth	-3848
▁considering	-3849
▁meaning	-3850
ifications	-3851
▁emergency	-3852
▁ethnic	-3853
▁cou	-3854
▁dignity	-3855
▁got	-3856
▁approve	-3857
ades	-3858
▁realise	-3859
▁violations	-3860
▁cooperate	-3861
▁ord	-3862
▁wit	-3863
▁penalty	-3864
▁overcome	-3865
▁infring	-3866
▁collective	-3867
here	-3868
▁difference	-3869
▁dispos	-3870
▁subsequ	-3871
▁surpr	-3872
▁imports	-3873
▁involves	-3874
▁surely	-3875
cel	-3876
inese	-3877
▁passed	-3878
▁normal	-3879
▁noted	-3880
▁substance	-3881
▁extended	-3882
pay	-3883
▁played	-3884
▁examine	-3885
▁souther	-3886
▁dutch	-3887
cent	-3888
▁vig	-3889
▁compared	-3890
bru	-3891
▁allocated	-3892
econom	-3893
▁southern	-3894
gue	-3895
▁chinese	-3896
stitutional	-3897
▁condition	-3898
bruary	-3899
dp	-3900
adv	-3901
pped	-3902
▁insurance	-3903
illing	-3904
▁clause	-3905
▁firmly	-3906
▁universal	-3907
▁farming	-3908
▁undoubtedly	-3909
▁apparent	-3910
▁reiter	-3911
gos	-3912
▁check	-3913
▁west	-3914
uls	-3915
▁operational	-3916
avi	-3917
▁february	-3918
eli	-3919
▁austria	-3920
▁industries	-3921
▁usa	-3922
▁friends	-3923
▁treated	-3924
▁decisive	-3925
▁excessive	-3926
▁electronic	-3927
▁vulnerable	-3928
abor	-3929
iling	-3930
▁regrett	-3931
▁obstacles	-3932
ties	-3933
▁india	-3934
▁planned	-3935
▁lose	-3936
▁taxes	-3937
▁federal	-3938
adow	-3939
▁fisc	-3940
▁offers	-3941
▁property	-3942
▁requested	-3943
ex	-3944
rend	-3945
▁studies	-3946
▁preventing	-3947
▁autom	-3948
▁unfair	-3949
what	-3950
▁happens	-3951
▁stra	-3952
mos	-3953
▁nice	-3954
gic	-3955
▁geograph	-3956
▁bos	-3957
gment	-3958
▁pillar	-3959
▁fiscal	-3960
▁somewhat	-3961
▁honest	-3962
▁trib	-3963
▁elector	-3964
▁preparing	-3965
▁afford	-3966
▁formal	-3967
▁exclusion	-3968
▁sil	-3969
▁taxpay	-3970
▁exclus	-3971
hr	-3972
institutional	-3973
▁gone	-3974
▁impression	-3975
▁patent	-3976
▁islam	-3977
economic	-3978
cul	-3979
▁allows	-3980
▁worry	-3981
▁behavi	-3982
▁protest	-3983
▁applying	-3984
▁accomp	-3985
▁prepare	-3986
lav	-3987
▁acknowledge	-3988
nal	-3989
enty	-3990
advant	-3991
▁statute	-3992
▁valu	-3993
▁abuse	-3994
▁prove	-3995
▁nation	-3996
▁art	-3997
▁drawing	-3998
▁disadvant	-3999
▁introducing	-4000
osed	-4001
▁reli	-4002
▁highest	-4003
▁behaviour	-4004
▁ngos	-4005
af	-4006
▁resum	-4007
▁phase	-4008
ires	-4009
▁slovak	-4010
▁quotas	-4011
▁ren	-4012
▁constantly	-4013
▁seven	-4014
ames	-4015
▁keeping	-4016
▁spoken	-4017
▁extension	-4018
▁dynam	-4019
▁ongoing	-4020
▁accounts	-4021
▁urgently	-4022
lection	-4023
▁aband	-4024
▁details	-4025
▁permit	-4026
▁restric	-4027
▁israeli	-4028
▁appreciate	-4029
▁pure	-4030
▁uncertain	-4031
▁fruit	-4032
▁patients	-4033
▁hous	-4034
▁pref	-4035
▁forum	-4036
▁duties	-4037
▁expectations	-4038
▁cars	-4039
▁phen	-4040
▁abstain	-4041
▁compe	-4042
▁pursue	-4043
▁hom	-4044
▁spoke	-4045
▁processes	-4046
▁relates	-4047
▁stronger	-4048
▁multilateral	-4049
▁phenomen	-4050
▁supervision	-4051
▁latest	-4052
▁distort	-4053
▁places	-4054
rupt	-4055
▁facts	-4056
▁kore	-4057
▁block	-4058
▁advance	-4059
▁witness	-4060
▁proceedings	-4061
▁journal	-4062
▁reconst	-4063
▁coordinated	-4064
▁convergence	-4065
▁determined	-4066
▁advert	-4067
▁canc	-4068
▁stocks	-4069
▁politically	-4070
▁prosperity	-4071
ingu	-4072
▁latter	-4073
▁wall	-4074
▁imper	-4075
▁proc	-4076
apan	-4077
▁plant	-4078
rid	-4079
▁fort	-4080
stood	-4081
▁historic	-4082
▁sensible	-4083
essions	-4084
▁described	-4085
▁fishermen	-4086
▁announced	-4087
▁presidents	-4088
▁welcomed	-4089
▁arguments	-4090
▁maintaining	-4091
▁strategies	-4092
▁prem	-4093
▁mobil	-4094
▁engage	-4095
▁briefly	-4096
▁timet	-4097
▁operating	-4098
▁exploitation	-4099
▁urban	-4100
▁types	-4101
▁accompan	-4102
▁strengthened	-4103
▁clean	-4104
lined	-4105
▁amending	-4106
▁barriers	-4107
▁disag	-4108
▁surve	-4109
▁beings	-4110
▁traged	-4111
tin	-4112
ugh	-4113
▁prohib	-4114
▁confirmed	-4115
▁ombudsman	-4116
ns	-4117
▁represented	-4118
▁margin	-4119
▁ratification	-4120
ery	-4121
▁learning	-4122
▁aviation	-4123
▁telev	-4124
▁intends	-4125
▁decent	-4126
▁hol	-4127
▁replace	-4128
▁clarify	-4129
▁fields	-4130
rees	-4131
aced	-4132
▁asia	-4133
▁virt	-4134
▁prodi	-4135
▁electricity	-4136
▁bit	-4137
▁kept	-4138
▁symb	-4139
▁japan	-4140
ground	-4141
▁sovereignty	-4142
▁territorial	-4143
▁tend	-4144
care	-4145
▁debating	-4146
▁equipment	-4147
▁largely	-4148
▁materials	-4149
▁largest	-4150
▁leadership	-4151
▁mus	-4152
ugos	-4153
▁symbol	-4154
▁realistic	-4155
isory	-4156
▁attract	-4157
teen	-4158
▁uniform	-4159
ugoslav	-4160
▁coherent	-4161
ked	-4162
▁published	-4163
▁innovative	-4164
▁finding	-4165
▁contracts	-4166
ented	-4167
▁destroy	-4168
▁believes	-4169
▁correspon	-4170
▁yugoslav	-4171
▁stim	-4172
nel	-4173
▁dr	-4174
med	-4175
▁socialists	-4176
▁follows	-4177
▁brings	-4178
▁genet	-4179
▁mac	-4180
asing	-4181
▁room	-4182
▁stabil	-4183
▁vat	-4184
▁suffer	-4185
bit	-4186
oon	-4187
▁identity	-4188
eff	-4189
▁urgency	-4190
▁undertaken	-4191
▁prosec	-4192
▁perfectly	-4193
unity	-4194
▁answers	-4195
▁medical	-4196
▁television	-4197
▁careful	-4198
▁shadow	-4199
▁changing	-4200
▁significantly	-4201
orry	-4202
▁pak	-4203
▁offered	-4204
▁anne	-4205
▁cr	-4206
▁legally	-4207
iciently	-4208
aw	-4209
▁felt	-4210
▁resist	-4211
▁transition	-4212
▁waiting	-4213
▁accidents	-4214
▁medicines	-4215
▁nl	-4216
▁bound	-4217
▁reconstruction	-4218
▁dependent	-4219
▁wait	-4220
▁stable	-4221
▁wealth	-4222
▁absence	-4223
▁determination	-4224
▁ende	-4225
▁lic	-4226
▁endeav	-4227
▁qualified	-4228
▁define	-4229
▁restructuring	-4230
▁exports	-4231
lin	-4232
▁countrys	-4233
▁mont	-4234
▁argument	-4235
▁inspect	-4236
▁chap	-4237
▁recall	-4238
▁someone	-4239
▁vac	-4240
ulsory	-4241
ona	-4242
▁expert	-4243
▁proved	-4244
▁neighbours	-4245
▁evalu	-4246
▁disagree	-4247
▁choose	-4248
▁difficulty	-4249
▁bir	-4250
▁fer	-4251
▁x	-4252
▁surv	-4253
▁teach	-4254
▁lab	-4255
▁seeing	-4256
▁vessels	-4257
▁understood	-4258
xic	-4259
▁referring	-4260
position	-4261
▁antic	-4262
ops	-4263
▁scand	-4264
▁honour	-4265
appe	-4266
▁popul	-4267
▁supposed	-4268
usion	-4269
▁highlighted	-4270
▁amended	-4271
▁driving	-4272
▁constitu	-4273
▁genuinely	-4274
▁holding	-4275
▁wine	-4276
▁distin	-4277
▁fine	-4278
under	-4279
▁extensive	-4280
olution	-4281
▁preced	-4282
▁sustainability	-4283
▁neighbourhood	-4284
▁disposal	-4285
▁valuable	-4286
▁figure	-4287
▁interf	-4288
▁significance	-4289
▁envis	-4290
▁preparation	-4291
▁milk	-4292
▁infringe	-4293
▁satisfactory	-4294
▁isol	-4295
▁deficit	-4296
▁worldwide	-4297
▁societ	-4298
▁breach	-4299
▁primary	-4300
▁resulting	-4301
ba	-4302
oto	-4303
▁annex	-4304
▁dail	-4305
▁displ	-4306
▁users	-4307
▁leads	-4308
▁daily	-4309
ursday	-4310
▁courts	-4311
▁hungarian	-4312
▁divid	-4313
▁considers	-4314
bu	-4315
▁thursday	-4316
▁waters	-4317
▁touch	-4318
▁destruction	-4319
▁transitional	-4320
▁remark	-4321
▁negotiation	-4322
▁zone	-4323
▁boost	-4324
▁turning	-4325
▁pakistan	-4326
ches	-4327
▁parent	-4328
▁bosn	-4329
▁core	-4330
▁slight	-4331
▁intellig	-4332
▁requests	-4333
▁latin	-4334
▁becomes	-4335
▁depart	-4336
▁abandon	-4337
▁unne	-4338
▁croatia	-4339
▁gdp	-4340
lder	-4341
atible	-4342
▁previously	-4343
▁team	-4344
▁unnecess	-4345
▁listen	-4346
▁neighbouring	-4347
▁disappe	-4348
▁monop	-4349
▁acknowled	-4350
▁worlds	-4351
▁governing	-4352
▁arab	-4353
like	-4354
▁fat	-4355
▁suggested	-4356
▁playing	-4357
▁motor	-4358
▁attempts	-4359
▁meat	-4360
▁eight	-4361
▁europol	-4362
▁saw	-4363
atlantic	-4364
▁built	-4365
▁assume	-4366
▁actively	-4367
▁dism	-4368
▁plants	-4369
posed	-4370
▁elsewhere	-4371
cale	-4372
▁radical	-4373
▁investigation	-4374
▁coal	-4375
▁dram	-4376
▁possibly	-4377
▁constitute	-4378
▁speeches	-4379
▁numbers	-4380
▁strugg	-4381
onom	-4382
▁britain	-4383
mas	-4384
▁partly	-4385
▁sets	-4386
▁stands	-4387
▁release	-4388
▁reaction	-4389
▁enforcement	-4390
▁version	-4391
▁director	-4392
▁centres	-4393
sk	-4394
▁collabor	-4395
▁compulsory	-4396
▁deliber	-4397
▁inadequate	-4398
▁radi	-4399
▁serbia	-4400
▁greatly	-4401
▁sufficiently	-4402
ressive	-4403
▁valid	-4404
▁satisfied	-4405
▁maintained	-4406
▁identify	-4407
▁indicated	-4408
▁intellect	-4409
▁push	-4410
▁whereas	-4411
ixed	-4412
▁links	-4413
▁concentrate	-4414
▁consci	-4415
▁thanking	-4416
▁autonom	-4417
▁essentially	-4418
▁finland	-4419
ength	-4420
▁opposite	-4421
▁complement	-4422
▁prisoners	-4423
▁reci	-4424
▁obliged	-4425
▁double	-4426
▁tragic	-4427
▁lob	-4428
pir	-4429
▁accident	-4430
osen	-4431
▁secretary	-4432
▁etc	-4433
▁flood	-4434
▁chec	-4435
▁species	-4436
▁running	-4437
▁pped	-4438
▁guaranteeing	-4439
▁flag	-4440
▁pleas	-4441
▁bor	-4442
▁austrian	-4443
▁background	-4444
▁options	-4445
▁lac	-4446
raft	-4447
▁timetable	-4448
▁pi	-4449
▁ports	-4450
▁moral	-4451
▁texts	-4452
▁affects	-4453
▁hundreds	-4454
active	-4455
▁identified	-4456
▁class	-4457
▁interpretation	-4458
▁georgia	-4459
▁societies	-4460
ses	-4461
▁schools	-4462
▁leader	-4463
▁remove	-4464
▁approx	-4465
son	-4466
▁schemes	-4467
▁suffered	-4468
▁ech	-4469
▁ppede	-4470
▁exchang	-4471
▁carrying	-4472
iar	-4473
▁petitions	-4474
▁herit	-4475
▁deserves	-4476
▁launched	-4477
▁himself	-4478
▁os	-4479
▁pain	-4480
▁topic	-4481
▁aftern	-4482
▁debated	-4483
▁kyoto	-4484
▁chosen	-4485
▁bse	-4486
▁possibilities	-4487
▁hearing	-4488
▁advertising	-4489
▁stay	-4490
▁heritage	-4491
▁heading	-4492
▁proof	-4493
▁enhance	-4494
▁card	-4495
▁completed	-4496
▁helped	-4497
▁implications	-4498
▁judge	-4499
▁sorry	-4500
▁openness	-4501
▁conducted	-4502
iny	-4503
▁issued	-4504
▁went	-4505
▁addressing	-4506
▁cities	-4507
▁racism	-4508
▁taxpayers	-4509
▁tort	-4510
▁transatlantic	-4511
▁length	-4512
▁intellectual	-4513
▁seeks	-4514
▁paral	-4515
▁competent	-4516
▁complicated	-4517
▁category	-4518
▁extraordin	-4519
▁moroc	-4520
▁dum	-4521
▁diplomatic	-4522
▁definitely	-4523
▁heavy	-4524
▁facilities	-4525
▁nobody	-4526
▁forg	-4527
▁inequ	-4528
enn	-4529
▁inev	-4530
▁extending	-4531
▁spite	-4532
▁belief	-4533
▁poorest	-4534
▁gap	-4535
enth	-4536
▁pred	-4537
▁acquis	-4538
▁conventions	-4539
▁hungary	-4540
▁roman	-4541
iding	-4542
▁admit	-4543
▁danish	-4544
▁ratified	-4545
▁tragedy	-4546
ites	-4547
▁earth	-4548
▁hit	-4549
▁massive	-4550
▁pensions	-4551
▁successfully	-4552
iry	-4553
▁cast	-4554
▁whereby	-4555
▁register	-4556
▁intentions	-4557
build	-4558
▁prospects	-4559
▁fil	-4560
▁section	-4561
▁correspond	-4562
▁belgian	-4563
irect	-4564
celona	-4565
▁sugar	-4566
▁bosnia	-4567
bs	-4568
ront	-4569
▁lith	-4570
▁deals	-4571
▁emer	-4572
▁size	-4573
▁purely	-4574
▁optim	-4575
▁expand	-4576
▁dig	-4577
▁save	-4578
house	-4579
▁healthy	-4580
▁incident	-4581
▁barcelona	-4582
▁lithu	-4583
▁acting	-4584
▁blood	-4585
▁mistake	-4586
abled	-4587
atures	-4588
▁phys	-4589
▁bearing	-4590
irable	-4591
▁worst	-4592
▁polish	-4593
io	-4594
▁inqu	-4595
▁nationals	-4596
gra	-4597
▁cf	-4598
▁harmful	-4599
▁belgium	-4600
▁frank	-4601
▁demanding	-4602
▁accordingly	-4603
▁skills	-4604
▁imagine	-4605
▁worrying	-4606
▁generation	-4607
zer	-4608
akes	-4609
▁players	-4610
▁increases	-4611
▁profits	-4612
▁considerations	-4613
▁gal	-4614
▁solely	-4615
▁unanimously	-4616
▁communications	-4617
▁producing	-4618
▁manufacturers	-4619
▁bon	-4620
cohol	-4621
▁threats	-4622
▁foremost	-4623
▁fal	-4624
▁swift	-4625
▁opened	-4626
▁relatively	-4627
abilities	-4628
pre	-4629
▁lam	-4630
general	-4631
▁determine	-4632
▁city	-4633
▁swit	-4634
▁savings	-4635
▁percent	-4636
▁spring	-4637
▁explanation	-4638
▁stressed	-4639
▁phil	-4640
▁hopes	-4641
▁purch	-4642
▁phenomenon	-4643
▁dispute	-4644
oh	-4645
▁depends	-4646
▁tools	-4647
▁passenger	-4648
▁easily	-4649
▁alcohol	-4650
▁correctly	-4651
▁respects	-4652
▁environmentally	-4653
▁reve	-4654
▁torture	-4655
cont	-4656
▁alb	-4657
roduct	-4658
▁crises	-4659
laf	-4660
▁charges	-4661
▁dictators	-4662
rust	-4663
▁rapidly	-4664
▁granting	-4665
▁prevail	-4666
▁proud	-4667
▁advice	-4668
▁enabling	-4669
▁cuts	-4670
▁reinforce	-4671
▁healthcare	-4672
▁town	-4673
▁geographical	-4674
▁ie	-4675
anda	-4676
commun	-4677
gypt	-4678
▁claims	-4679
▁reinfor	-4680
▁ash	-4681
▁explicit	-4682
▁achievement	-4683
▁considerably	-4684
▁mc	-4685
▁tran	-4686
▁pict	-4687
▁carbon	-4688
▁conserv	-4689
▁tit	-4690
▁reliable	-4691
▁faith	-4692
▁fifth	-4693
▁reven	-4694
▁decades	-4695
▁afternoon	-4696
▁clarity	-4697
repren	-4698
▁refers	-4699
▁exceed	-4700
▁biod	-4701
repreneur	-4702
▁quote	-4703
▁remaining	-4704
▁undertakings	-4705
▁terri	-4706
iscri	-4707
▁feeling	-4708
▁bureaucracy	-4709
che	-4710
▁sake	-4711
▁entrepreneur	-4712
▁promised	-4713
cipl	-4714
▁egypt	-4715
▁doubts	-4716
ounting	-4717
holders	-4718
▁advantages	-4719
▁experienced	-4720
▁ships	-4721
▁flight	-4722
oted	-4723
encing	-4724
▁radio	-4725
▁paying	-4726
icro	-4727
▁island	-4728
▁focused	-4729
▁encouraged	-4730
▁spend	-4731
▁favourable	-4732
▁suitable	-4733
▁watch	-4734
related	-4735
▁regrettable	-4736
car	-4737
int	-4738
▁weight	-4739
▁owners	-4740
▁willingness	-4741
right	-4742
▁vari	-4743
▁airlines	-4744
▁supplementary	-4745
▁tib	-4746
▁korea	-4747
amb	-4748
inated	-4749
▁maced	-4750
▁piece	-4751
▁twenty	-4752
▁applicable	-4753
▁insuff	-4754
oring	-4755
▁tradition	-4756
▁incom	-4757
▁oppose	-4758
▁cau	-4759
▁upd	-4760
▁emphasised	-4761
▁declared	-4762
▁contradict	-4763
▁ded	-4764
▁bomb	-4765
▁contributed	-4766
▁modified	-4767
▁historical	-4768
▁alleg	-4769
▁entered	-4770
eva	-4771
▁certainty	-4772
▁reflected	-4773
ception	-4774
▁legitimacy	-4775
sy	-4776
▁night	-4777
▁unnecessary	-4778
cyc	-4779
▁compon	-4780
▁dynamic	-4781
▁competences	-4782
▁beef	-4783
▁unlike	-4784
▁indirect	-4785
▁succeeded	-4786
▁canad	-4787
▁aside	-4788
▁punish	-4789
▁powerful	-4790
▁affecting	-4791
▁pse	-4792
utive	-4793
▁everybody	-4794
▁ben	-4795
▁biggest	-4796
▁detri	-4797
▁tibet	-4798
▁performance	-4799
ient	-4800
oured	-4801
▁violation	-4802
mpath	-4803
▁endors	-4804
▁reaching	-4805
▁fortun	-4806
▁overl	-4807
burg	-4808
▁beg	-4809
▁zim	-4810
▁cuba	-4811
▁applications	-4812
▁citizenship	-4813
hus	-4814
▁leaving	-4815
▁constitutes	-4816
▁regarded	-4817
▁firms	-4818
▁simplification	-4819
aff	-4820
▁vast	-4821
▁negotiated	-4822
erved	-4823
▁employers	-4824
ophob	-4825
▁arise	-4826
▁adjustment	-4827
▁rational	-4828
▁sympath	-4829
▁illust	-4830
▁basically	-4831
resh	-4832
▁fast	-4833
▁persu	-4834
▁islands	-4835
inational	-4836
▁sev	-4837
▁removed	-4838
▁thres	-4839
▁unity	-4840
▁greenhouse	-4841
ony	-4842
▁scr	-4843
fying	-4844
▁fit	-4845
▁vit	-4846
▁armed	-4847
▁reservations	-4848
▁utmost	-4849
▁welcomes	-4850
▁surround	-4851
▁electoral	-4852
inc	-4853
▁deeply	-4854
▁libert	-4855
▁chain	-4856
▁reiterate	-4857
▁presenting	-4858
▁tunis	-4859
▁privile	-4860
▁raising	-4861
▁straight	-4862
▁subjects	-4863
raid	-4864
▁sought	-4865
▁nearly	-4866
▁doct	-4867
▁science	-4868
▁scrut	-4869
▁incorporated	-4870
▁dro	-4871
astrich	-4872
▁consequence	-4873
▁embar	-4874
▁prompt	-4875
▁afraid	-4876
▁disabled	-4877
astricht	-4878
pal	-4879
▁inflation	-4880
▁intervene	-4881
isch	-4882
▁alarm	-4883
iversity	-4884
▁chann	-4885
▁religion	-4886
▁maastricht	-4887
▁declarations	-4888
▁articles	-4889
▁foundation	-4890
▁rid	-4891
▁smaller	-4892
▁ordinary	-4893
▁targeted	-4894
▁partsession	-4895
▁sloven	-4896
▁fairly	-4897
▁noon	-4898
▁restore	-4899
acing	-4900
▁bill	-4901
▁cert	-4902
▁tests	-4903
▁combined	-4904
free	-4905
alities	-4906
▁multinational	-4907
ores	-4908
▁communist	-4909
▁biodiversity	-4910
▁gaz	-4911
ading	-4912
▁obtained	-4913
▁marketing	-4914
▁macro	-4915
▁cancer	-4916
▁sv	-4917
▁applicant	-4918
iann	-4919
▁tight	-4920
▁liberties	-4921
▁telecommun	-4922
uter	-4923
▁buildings	-4924
iers	-4925
▁millenn	-4926
▁incentives	-4927
sh	-4928
▁army	-4929
▁importantly	-4930
▁excluded	-4931
▁ecb	-4932
▁deserve	-4933
▁demograph	-4934
▁congratulations	-4935
▁anticip	-4936
▁sched	-4937
▁denmark	-4938
▁settlement	-4939
▁buy	-4940
▁eye	-4941
▁derog	-4942
▁interpre	-4943
▁berlin	-4944
▁corpor	-4945
▁exempt	-4946
▁regardless	-4947
▁enlar	-4948
▁creates	-4949
obile	-4950
▁railway	-4951
▁sus	-4952
▁foundations	-4953
▁dos	-4954
▁hyp	-4955
▁preparations	-4956
▁door	-4957
▁pap	-4958
▁entail	-4959
▁negotiate	-4960
▁jointly	-4961
bab	-4962
actions	-4963
▁revised	-4964
▁outstanding	-4965
▁suggestions	-4966
while	-4967
▁mold	-4968
▁complaints	-4969
▁credible	-4970
eter	-4971
▁unre	-4972
▁euros	-4973
▁transe	-4974
▁transform	-4975
▁jur	-4976
▁eyes	-4977
igu	-4978
▁stip	-4979
▁digital	-4980
▁pil	-4981
▁millennium	-4982
▁terrible	-4983
▁necessarily	-4984
▁summer	-4985
▁transeuropean	-4986
▁fleet	-4987
▁da	-4988
▁drafting	-4989
sification	-4990
comings	-4991
▁shortcomings	-4992
▁pan	-4993
▁zimbab	-4994
▁showing	-4995
▁wording	-4996
▁exceptional	-4997
▁fost	-4998
▁surprised	-4999
jud	-5000
oll	-5001
imate	-5002
▁reflects	-5003
▁alongside	-5004
▁hardly	-5005
▁bureaucratic	-5006
ria	-5007
▁tonnes	-5008
▁tre	-5009
▁accur	-5010
▁eliminate	-5011
agn	-5012
arer	-5013
▁charge	-5014
▁examined	-5015
▁representation	-5016
▁persec	-5017
▁students	-5018
put	-5019
▁imb	-5020
▁title	-5021
▁expressing	-5022
let	-5023
orous	-5024
▁wides	-5025
▁pleasure	-5026
▁qualifications	-5027
▁justify	-5028
▁soft	-5029
▁repeatedly	-5030
▁economically	-5031
▁chapter	-5032
opard	-5033
alling	-5034
▁fresh	-5035
▁educational	-5036
▁fewer	-5037
▁intensive	-5038
▁reserve	-5039
▁candidates	-5040
pread	-5041
▁organiz	-5042
▁incomp	-5043
anging	-5044
▁checks	-5045
▁delays	-5046
▁procure	-5047
▁hal	-5048
▁enhanced	-5049
▁populations	-5050
▁perpet	-5051
▁select	-5052
▁broader	-5053
▁liability	-5054
▁wind	-5055
▁trend	-5056
▁airports	-5057
point	-5058
▁tackling	-5059
▁unemployed	-5060
▁widespread	-5061
wing	-5062
▁announce	-5063
▁tariff	-5064
▁transactions	-5065
itative	-5066
▁jeopard	-5067
▁turned	-5068
▁extraordinary	-5069
stuff	-5070
▁physical	-5071
▁suspended	-5072
▁underline	-5073
▁quar	-5074
▁periods	-5075
▁hu	-5076
▁journalists	-5077
▁motions	-5078
lls	-5079
▁resulted	-5080
▁kinds	-5081
▁tough	-5082
▁penalties	-5083
acking	-5084
▁below	-5085
▁mur	-5086
▁commend	-5087
▁familiar	-5088
▁merc	-5089
▁executive	-5090
aks	-5091
emic	-5092
usal	-5093
ather	-5094
▁abolition	-5095
▁param	-5096
▁shape	-5097
▁deadline	-5098
▁broadcast	-5099
▁sudan	-5100
craft	-5101
▁catch	-5102
part	-5103
▁vacc	-5104
▁zimbabwe	-5105
▁discrimin	-5106
erences	-5107
▁aids	-5108
▁lessons	-5109
▁falls	-5110
▁incon	-5111
▁leban	-5112
▁territories	-5113
▁minim	-5114
▁picture	-5115
▁warmly	-5116
▁moldov	-5117
▁insufficient	-5118
▁discipl	-5119
▁ambition	-5120
▁undermine	-5121
▁preserve	-5122
▁yugoslavia	-5123
▁micro	-5124
▁lasting	-5125
▁standing	-5126
▁redund	-5127
inal	-5128
bre	-5129
leb	-5130
▁allocation	-5131
▁spl	-5132
▁fire	-5133
▁terrorists	-5134
▁communitys	-5135
iannual	-5136
▁losses	-5137
▁stance	-5138
▁processing	-5139
lel	-5140
lish	-5141
ague	-5142
road	-5143
▁restricted	-5144
▁civilian	-5145
▁macedonia	-5146
▁unfortunate	-5147
▁relate	-5148
▁parents	-5149
▁palestinians	-5150
aut	-5151
tering	-5152
▁organization	-5153
▁depri	-5154
▁aircraft	-5155
▁euromed	-5156
▁similarly	-5157
comp	-5158
▁rob	-5159
▁expense	-5160
▁juris	-5161
▁islamic	-5162
▁satisfaction	-5163
▁scandal	-5164
▁dictatorship	-5165
▁geneva	-5166
▁widely	-5167
▁ig	-5168
▁award	-5169
▁freely	-5170
bal	-5171
▁uncertainty	-5172
▁became	-5173
▁condemned	-5174
rog	-5175
▁gradually	-5176
▁elder	-5177
roductive	-5178
cal	-5179
▁english	-5180
▁celeb	-5181
▁shares	-5182
▁expensive	-5183
▁slovakia	-5184
▁drafted	-5185
▁regulated	-5186
▁emu	-5187
▁quota	-5188
▁ethical	-5189
▁deaths	-5190
▁occurred	-5191
▁explained	-5192
▁procurement	-5193
ara	-5194
▁puts	-5195
cle	-5196
ured	-5197
▁regulate	-5198
▁bol	-5199
▁banking	-5200
▁offering	-5201
▁ecological	-5202
▁lie	-5203
▁shar	-5204
▁promises	-5205
▁revolution	-5206
viet	-5207
year	-5208
▁multiannual	-5209
▁raw	-5210
▁coordinate	-5211
▁covers	-5212
▁marine	-5213
▁drivers	-5214
▁interim	-5215
▁receiving	-5216
▁unanimous	-5217
▁indicators	-5218
rations	-5219
▁battle	-5220
▁demonstrates	-5221
▁elderly	-5222
▁demographic	-5223
zil	-5224
▁causing	-5225
▁indicate	-5226
▁collaboration	-5227
▁tang	-5228
▁burma	-5229
▁larger	-5230
▁outset	-5231
▁finances	-5232
▁approximately	-5233
▁ignore	-5234
▁generations	-5235
▁gaza	-5236
▁seas	-5237
▁conce	-5238
▁ep	-5239
mann	-5240
count	-5241
▁remed	-5242
▁spect	-5243
▁informal	-5244
iced	-5245
▁shame	-5246
▁warning	-5247
▁haz	-5248
▁equival	-5249
▁pursuant	-5250
▁inj	-5251
building	-5252
▁presentation	-5253
oler	-5254
ques	-5255
▁listened	-5256
▁suggestion	-5257
▁associations	-5258
▁unique	-5259
▁financed	-5260
▁division	-5261
▁began	-5262
▁transit	-5263
▁perspectives	-5264
▁sphere	-5265
▁declare	-5266
▁fifteen	-5267
▁morocco	-5268
▁endeavour	-5269
▁dossi	-5270
ensible	-5271
▁observed	-5272
▁inhab	-5273
▁unw	-5274
▁preca	-5275
▁engaged	-5276
▁deterior	-5277
▁echo	-5278
▁inquiry	-5279
▁shortly	-5280
▁notice	-5281
▁forests	-5282
ancy	-5283
▁trial	-5284
▁weakness	-5285
▁olaf	-5286
▁plat	-5287
▁recital	-5288
▁deploy	-5289
istration	-5290
▁du	-5291
▁forgot	-5292
▁albania	-5293
▁killed	-5294
▁tribute	-5295
▁americans	-5296
▁necessity	-5297
nish	-5298
▁enthus	-5299
culation	-5300
▁undertake	-5301
▁frequently	-5302
stuffs	-5303
▁exerc	-5304
unction	-5305
▁looked	-5306
▁voc	-5307
▁promise	-5308
▁contacts	-5309
▁attend	-5310
▁prevented	-5311
▁observation	-5312
atell	-5313
▁noise	-5314
outh	-5315
▁sending	-5316
▁viable	-5317
▁suspect	-5318
▁severe	-5319
▁abstained	-5320
▁tam	-5321
iles	-5322
▁promoted	-5323
▁supplies	-5324
▁couple	-5325
hand	-5326
▁reloc	-5327
▁agg	-5328
regular	-5329
▁dumping	-5330
▁igc	-5331
▁fisch	-5332
▁clearer	-5333
▁hopefully	-5334
▁irregular	-5335
▁fem	-5336
▁search	-5337
gm	-5338
▁struggle	-5339
▁conservation	-5340
▁beneficial	-5341
oly	-5342
osp	-5343
▁brazil	-5344
▁troops	-5345
▁roads	-5346
▁strike	-5347
▁chechn	-5348
▁compatible	-5349
hear	-5350
▁blame	-5351
▁emerging	-5352
▁postal	-5353
▁aug	-5354
▁horiz	-5355
istical	-5356
▁sincerely	-5357
cl	-5358
▁arising	-5359
▁pursued	-5360
▁choices	-5361
▁persist	-5362
▁erad	-5363
▁cas	-5364
rown	-5365
▁rome	-5366
▁relie	-5367
▁agrees	-5368
▁chechnya	-5369
▁moved	-5370
ulating	-5371
augh	-5372
▁eec	-5373
illance	-5374
▁revenue	-5375
▁defending	-5376
▁rejection	-5377
▁soviet	-5378
▁clarification	-5379
ocking	-5380
lo	-5381
▁pharm	-5382
▁wise	-5383
▁entrepreneurs	-5384
▁accompanied	-5385
▁enlarged	-5386
▁strictly	-5387
▁harmonised	-5388
place	-5389
▁respecting	-5390
▁congratulating	-5391
▁cheap	-5392
▁surveillance	-5393
▁talked	-5394
etic	-5395
▁guard	-5396
ables	-5397
▁divided	-5398
rous	-5399
▁lifel	-5400
▁popular	-5401
▁exclusively	-5402
▁parallel	-5403
mans	-5404
▁lond	-5405
▁birth	-5406
▁lithuania	-5407
▁subsequently	-5408
▁wage	-5409
▁accessible	-5410
▁stre	-5411
▁reveal	-5412
▁timely	-5413
▁coherence	-5414
▁unanimity	-5415
aching	-5416
▁imbal	-5417
▁distinction	-5418
▁keen	-5419
▁efficiently	-5420
appro	-5421
▁ineff	-5422
▁rising	-5423
▁vehicle	-5424
▁collection	-5425
▁rh	-5426
▁campaigns	-5427
▁mach	-5428
▁crops	-5429
amp	-5430
▁organise	-5431
▁simplify	-5432
versi	-5433
▁unequ	-5434
▁admitted	-5435
regulation	-5436
▁progressive	-5437
▁supervisory	-5438
▁xen	-5439
ophobia	-5440
▁liberals	-5441
▁stations	-5442
cas	-5443
▁bott	-5444
▁cs	-5445
▁prize	-5446
▁institute	-5447
▁percentage	-5448
▁refuse	-5449
▁chemicals	-5450
ula	-5451
▁soil	-5452
▁volum	-5453
▁explanations	-5454
▁moun	-5455
see	-5456
▁bes	-5457
▁distingu	-5458
▁loans	-5459
▁london	-5460
▁sharing	-5461
▁extrem	-5462
ah	-5463
▁ang	-5464
eping	-5465
▁hour	-5466
▁judgment	-5467
▁alternatives	-5468
versial	-5469
▁wed	-5470
▁sell	-5471
▁genetically	-5472
oul	-5473
▁mere	-5474
▁authorisation	-5475
▁friendly	-5476
▁reflection	-5477
▁disappointed	-5478
lif	-5479
▁seat	-5480
▁begun	-5481
sight	-5482
▁jurisd	-5483
▁experiencing	-5484
▁evident	-5485
▁string	-5486
▁reconciliation	-5487
mon	-5488
oud	-5489
▁route	-5490
▁hypoc	-5491
▁items	-5492
▁ms	-5493
▁followup	-5494
ato	-5495
off	-5496
▁canada	-5497
ifies	-5498
▁absurd	-5499
▁stem	-5500
iov	-5501
▁cease	-5502
▁inhabit	-5503
iable	-5504
▁intoler	-5505
▁consulted	-5506
▁directed	-5507
▁dream	-5508
▁atlantic	-5509
bo	-5510
▁desirable	-5511
▁acceptance	-5512
▁tangible	-5513
▁invite	-5514
▁finnish	-5515
rity	-5516
▁traditions	-5517
▁marked	-5518
▁connected	-5519
▁usual	-5520
▁observers	-5521
▁threatened	-5522
ivers	-5523
▁lacking	-5524
▁defining	-5525
▁lifelong	-5526
▁yourself	-5527
country	-5528
▁forgotten	-5529
omet	-5530
▁fron	-5531
▁ruling	-5532
▁stor	-5533
▁enshr	-5534
▁categories	-5535
▁gross	-5536
respect	-5537
▁counterfe	-5538
▁outer	-5539
▁replaced	-5540
▁permitted	-5541
▁clas	-5542
▁plural	-5543
▁reported	-5544
mar	-5545
▁burd	-5546
▁imposing	-5547
▁threshold	-5548
▁sight	-5549
▁raises	-5550
▁benefici	-5551
iring	-5552
▁cens	-5553
▁missing	-5554
▁railways	-5555
▁refused	-5556
▁organizations	-5557
▁adequ	-5558
▁hoped	-5559
▁nong	-5560
▁murder	-5561
▁image	-5562
▁rating	-5563
▁palestine	-5564
cs	-5565
▁ment	-5566
arians	-5567
▁managing	-5568
▁prelimin	-5569
▁frid	-5570
▁recyc	-5571
▁regimes	-5572
▁migrants	-5573
▁joined	-5574
▁residence	-5575
▁cofin	-5576
▁impet	-5577
▁mobile	-5578
▁refugee	-5579
▁shortterm	-5580
▁util	-5581
▁compete	-5582
▁underlying	-5583
ika	-5584
▁impetus	-5585
▁respective	-5586
▁unilateral	-5587
▁arch	-5588
▁privat	-5589
▁exchanges	-5590
sen	-5591
▁textile	-5592
▁preventive	-5593
▁assessments	-5594
mis	-5595
▁inten	-5596
▁pilot	-5597
▁dramatic	-5598
▁confusion	-5599
▁integrity	-5600
▁cultures	-5601
▁ideal	-5602
▁worthy	-5603
▁farms	-5604
▁preliminary	-5605
▁contributing	-5606
▁murd	-5607
▁expan	-5608
rm	-5609
▁lawy	-5610
▁subs	-5611
▁prejud	-5612
inn	-5613
▁procedural	-5614
▁coastal	-5615
▁housing	-5616
▁highlights	-5617
▁controversial	-5618
▁plays	-5619
▁showed	-5620
▁failing	-5621
▁cos	-5622
▁signing	-5623
▁sun	-5624
▁nut	-5625
▁slightly	-5626
▁closure	-5627
▁minute	-5628
▁victim	-5629
▁logical	-5630
▁turkeys	-5631
▁resumed	-5632
▁characteristics	-5633
▁joining	-5634
liferation	-5635
stream	-5636
▁resistance	-5637
▁systematic	-5638
▁bush	-5639
▁notably	-5640
osis	-5641
arked	-5642
▁barn	-5643
▁funded	-5644
▁estimated	-5645
▁nar	-5646
icted	-5647
▁expansion	-5648
▁reductions	-5649
▁nine	-5650
▁scrutiny	-5651
time	-5652
soever	-5653
▁disreg	-5654
▁investors	-5655
▁observe	-5656
▁copy	-5657
▁diss	-5658
▁grat	-5659
▁resource	-5660
▁equivalent	-5661
▁helpful	-5662
▁subsequent	-5663
▁achievements	-5664
cus	-5665
▁shi	-5666
▁ambitions	-5667
requ	-5668
▁sacri	-5669
gies	-5670
▁track	-5671
▁socio	-5672
enna	-5673
▁eventually	-5674
▁movements	-5675
▁comparison	-5676
▁justification	-5677
ok	-5678
tion	-5679
oning	-5680
▁sacrific	-5681
level	-5682
▁advanced	-5683
▁contrast	-5684
▁whatsoever	-5685
▁rela	-5686
▁listening	-5687
▁delegations	-5688
▁kar	-5689
▁exceptions	-5690
▁distributed	-5691
▁controlled	-5692
eneg	-5693
ancies	-5694
▁advocate	-5695
▁continuation	-5696
▁universities	-5697
▁arbit	-5698
▁august	-5699
▁occupation	-5700
▁representing	-5701
▁safeguarding	-5702
▁eib	-5703
▁brid	-5704
▁surrounding	-5705
▁nom	-5706
istered	-5707
▁imported	-5708
▁mountain	-5709
down	-5710
izing	-5711
▁sales	-5712
▁monday	-5713
▁approaches	-5714
ney	-5715
▁transn	-5716
ublin	-5717
▁outermost	-5718
▁postp	-5719
▁warrant	-5720
▁analy	-5721
▁disputes	-5722
utical	-5723
▁mistakes	-5724
▁appointment	-5725
▁diox	-5726
▁adverse	-5727
▁accounting	-5728
zone	-5729
▁joh	-5730
▁ecof	-5731
▁apparently	-5732
ley	-5733
rors	-5734
▁biof	-5735
▁greens	-5736
▁destroyed	-5737
▁elig	-5738
▁flows	-5739
▁gar	-5740
▁biofuel	-5741
▁moldova	-5742
▁envisaged	-5743
▁losing	-5744
▁eg	-5745
▁nig	-5746
▁postpone	-5747
itably	-5748
▁ratify	-5749
roph	-5750
▁doha	-5751
▁contam	-5752
▁compromises	-5753
verse	-5754
▁philos	-5755
▁jurisdiction	-5756
dro	-5757
▁frag	-5758
▁latv	-5759
nesday	-5760
▁sudden	-5761
▁fixed	-5762
▁sadly	-5763
▁dublin	-5764
▁wednesday	-5765
▁fears	-5766
▁fires	-5767
▁motiv	-5768
▁mit	-5769
▁regularly	-5770
▁participating	-5771
▁fuels	-5772
quality	-5773
▁devast	-5774
▁socioeconomic	-5775
▁feas	-5776
▁founded	-5777
▁nongo	-5778
▁offices	-5779
▁providers	-5780
▁depl	-5781
▁nord	-5782
▁inside	-5783
▁profound	-5784
▁inhabitants	-5785
▁scen	-5786
▁wars	-5787
▁solved	-5788
otechn	-5789
▁banned	-5790
▁iraqi	-5791
▁reaff	-5792
▁restrictive	-5793
gov	-5794
▁mos	-5795
▁brut	-5796
▁tolerance	-5797
▁domin	-5798
▁looks	-5799
▁organic	-5800
▁conviction	-5801
▁cot	-5802
▁infringement	-5803
ched	-5804
▁innoc	-5805
▁experiences	-5806
▁scot	-5807
▁decre	-5808
▁covering	-5809
▁sentence	-5810
ala	-5811
ball	-5812
▁enfor	-5813
▁gained	-5814
▁aspir	-5815
▁fails	-5816
▁mandatory	-5817
▁reporting	-5818
▁blue	-5819
sified	-5820
▁abuses	-5821
▁concentration	-5822
▁abroad	-5823
▁freight	-5824
iate	-5825
▁blind	-5826
▁dangers	-5827
▁initially	-5828
▁assurance	-5829
▁wholehear	-5830
▁annivers	-5831
▁withdrawal	-5832
▁older	-5833
▁pretext	-5834
▁accepting	-5835
▁investigations	-5836
▁brok	-5837
▁assets	-5838
▁convince	-5839
▁infrastructures	-5840
urb	-5841
▁decentral	-5842
oe	-5843
▁hus	-5844
▁alde	-5845
▁error	-5846
▁liked	-5847
▁mexic	-5848
▁wages	-5849
▁indones	-5850
▁monitored	-5851
▁drive	-5852
▁transf	-5853
▁humanity	-5854
▁precaution	-5855
known	-5856
▁conve	-5857
▁facility	-5858
▁criminals	-5859
▁consistency	-5860
▁maybe	-5861
▁fourthly	-5862
▁signs	-5863
▁nongovernmental	-5864
appropri	-5865
▁confident	-5866
▁anniversary	-5867
▁macroeconomic	-5868
▁ice	-5869
▁integrate	-5870
▁neut	-5871
▁rely	-5872
▁pestic	-5873
▁tunisia	-5874
▁suggests	-5875
▁incorporate	-5876
▁ecofin	-5877
▁consent	-5878
▁tonight	-5879
▁modernisation	-5880
▁pursuing	-5881
▁stakeholders	-5882
teg	-5883
▁antid	-5884
beit	-5885
▁stages	-5886
▁resolving	-5887
▁examination	-5888
▁partnerships	-5889
▁nav	-5890
pical	-5891
▁unjust	-5892
▁albeit	-5893
▁containing	-5894
▁models	-5895
▁uphold	-5896
▁ignored	-5897
▁ast	-5898
▁hazard	-5899
▁infect	-5900
▁acknowledged	-5901
▁indis	-5902
▁lobby	-5903
▁satell	-5904
▁functions	-5905
▁stream	-5906
yle	-5907
aceutical	-5908
erving	-5909
▁expertise	-5910
▁stringent	-5911
▁registration	-5912
▁sports	-5913
▁ali	-5914
▁usually	-5915
▁accountability	-5916
▁paragraphs	-5917
ids	-5918
▁pret	-5919
▁trou	-5920
ocratic	-5921
▁lebanon	-5922
▁prerequ	-5923
ashion	-5924
pow	-5925
▁engine	-5926
▁thirdcountry	-5927
hne	-5928
umn	-5929
▁violent	-5930
▁prerequis	-5931
▁mun	-5932
▁orient	-5933
▁disregard	-5934
▁female	-5935
▁immunity	-5936
▁statistical	-5937
▁pharmaceutical	-5938
▁visas	-5939
▁concludes	-5940
ka	-5941
▁woman	-5942
▁voters	-5943
▁decline	-5944
▁visited	-5945
▁fortunately	-5946
▁malta	-5947
▁sold	-5948
▁alban	-5949
▁invited	-5950
▁postpon	-5951
▁scientists	-5952
▁actors	-5953
▁ageing	-5954
▁meantime	-5955
antly	-5956
▁chur	-5957
▁notes	-5958
▁impris	-5959
cuse	-5960
▁names	-5961
▁od	-5962
astroph	-5963
▁autonomy	-5964
▁proven	-5965
▁falling	-5966
▁variety	-5967
▁answered	-5968
▁outlined	-5969
▁catastroph	-5970
apse	-5971
▁cutting	-5972
▁constrain	-5973
▁consolidation	-5974
▁colomb	-5975
▁excuse	-5976
reaching	-5977
erate	-5978
▁apolog	-5979
▁criter	-5980
cape	-5981
▁denied	-5982
▁houses	-5983
▁employed	-5984
▁nond	-5985
▁finish	-5986
ationally	-5987
▁virtually	-5988
ulf	-5989
east	-5990
uries	-5991
▁false	-5992
▁precond	-5993
▁criterion	-5994
▁gmos	-5995
▁pipe	-5996
▁sympathy	-5997
▁recognises	-5998
pection	-5999
holm	-6000
▁die	-6001
▁burdens	-6002
▁gradual	-6003
▁hes	-6004
▁renewed	-6005
▁irre	-6006
▁arrive	-6007
▁irrespon	-6008
▁slaugh	-6009
▁backing	-6010
▁consultations	-6011
zen	-6012
ctic	-6013
▁safeguards	-6014
tenance	-6015
celer	-6016
▁hosp	-6017
▁monopol	-6018
▁neglect	-6019
▁vocational	-6020
▁maintenance	-6021
rators	-6022
▁sites	-6023
▁solana	-6024
haust	-6025
▁acceler	-6026
▁visible	-6027
▁learned	-6028
▁helps	-6029
▁cow	-6030
▁roth	-6031
▁trace	-6032
▁incentive	-6033
▁philosoph	-6034
▁corresponding	-6035
▁died	-6036
▁indication	-6037
▁forecast	-6038
▁clauses	-6039
▁privacy	-6040
▁ceiling	-6041
▁entering	-6042
▁everywhere	-6043
▁storage	-6044
▁composition	-6045
▁substantially	-6046
▁patten	-6047
▁dismant	-6048
▁football	-6049
▁pragm	-6050
▁simpl	-6051
▁smooth	-6052
▁dossier	-6053
aud	-6054
▁gri	-6055
▁unit	-6056
▁badly	-6057
▁endorsed	-6058
▁focusing	-6059
▁features	-6060
▁released	-6061
▁disastrous	-6062
▁observations	-6063
▁sincere	-6064
▁surpl	-6065
▁confront	-6066
▁wherever	-6067
▁examining	-6068
▁cope	-6069
▁appointed	-6070
isual	-6071
▁atmos	-6072
▁adequately	-6073
▁acted	-6074
▁mother	-6075
▁university	-6076
▁productivity	-6077
▁cere	-6078
whel	-6079
▁osce	-6080
▁libya	-6081
▁dur	-6082
iscrimination	-6083
▁presidential	-6084
oned	-6085
▁train	-6086
▁audiov	-6087
▁leaves	-6088
▁irrespect	-6089
irms	-6090
ressed	-6091
▁collapse	-6092
▁overwhel	-6093
▁programming	-6094
▁irrespective	-6095
olit	-6096
▁flu	-6097
▁veget	-6098
▁audiovisual	-6099
▁borne	-6100
▁stric	-6101
▁farreaching	-6102
nings	-6103
▁fate	-6104
▁syria	-6105
▁feature	-6106
rol	-6107
▁fi	-6108
▁galile	-6109
▁avoided	-6110
▁inspection	-6111
▁consistently	-6112
▁wal	-6113
▁corner	-6114
▁essence	-6115
▁fundamentally	-6116
▁poss	-6117
▁argue	-6118
▁evaluate	-6119
▁friday	-6120
asm	-6121
▁sections	-6122
▁misunder	-6123
ee	-6124
▁damaging	-6125
▁completion	-6126
▁deficits	-6127
▁xenophobia	-6128
▁ppe	-6129
▁earm	-6130
ulz	-6131
heug	-6132
▁reserves	-6133
▁federation	-6134
▁disappear	-6135
▁devoted	-6136
▁emerged	-6137
▁exclusive	-6138
▁schedul	-6139
▁minor	-6140
▁schulz	-6141
▁verheug	-6142
▁medicinal	-6143
overed	-6144
▁ashton	-6145
▁stabilisation	-6146
▁personnel	-6147
▁intelligent	-6148
prise	-6149
▁game	-6150
▁retire	-6151
▁enables	-6152
▁definitive	-6153
▁sixth	-6154
mo	-6155
strm	-6156
▁abort	-6157
▁tampe	-6158
▁recipro	-6159
▁rigorous	-6160
ini	-6161
riend	-6162
▁productive	-6163
▁testing	-6164
▁exhaust	-6165
racies	-6166
▁meets	-6167
▁galileo	-6168
isen	-6169
aratory	-6170
▁simplified	-6171
iw	-6172
zegov	-6173
▁sums	-6174
▁tackled	-6175
ounds	-6176
▁resort	-6177
▁switzer	-6178
▁detention	-6179
▁reper	-6180
▁repression	-6181
▁precautionary	-6182
zy	-6183
▁stockholm	-6184
▁coinc	-6185
▁lingu	-6186
▁vigil	-6187
▁autumn	-6188
▁computer	-6189
▁inappropri	-6190
▁presents	-6191
▁scar	-6192
igation	-6193
▁arrived	-6194
▁exemption	-6195
▁enterprise	-6196
▁disabilities	-6197
▁democratically	-6198
▁recommended	-6199
▁imperative	-6200
erted	-6201
▁generous	-6202
▁irregularities	-6203
▁struck	-6204
▁accused	-6205
ste	-6206
▁alg	-6207
▁dele	-6208
▁incred	-6209
eds	-6210
▁ensured	-6211
▁conservative	-6212
uct	-6213
▁inevitably	-6214
ulous	-6215
▁grave	-6216
▁responses	-6217
▁anx	-6218
▁squ	-6219
▁prop	-6220
▁lists	-6221
▁donors	-6222
ws	-6223
iberal	-6224
▁shift	-6225
▁volume	-6226
▁horizont	-6227
▁shipping	-6228
▁soldi	-6229
▁encoun	-6230
▁tampere	-6231
▁soldiers	-6232
amed	-6233
idential	-6234
ective	-6235
▁display	-6236
▁biofuels	-6237
▁explicitly	-6238
iated	-6239
olved	-6240
▁uses	-6241
▁fought	-6242
▁enabled	-6243
ull	-6244
▁forestry	-6245
▁sale	-6246
▁story	-6247
▁laying	-6248
▁embargo	-6249
▁socially	-6250
▁democratisation	-6251
tex	-6252
phere	-6253
▁deny	-6254
▁dete	-6255
▁preparatory	-6256
▁inequalities	-6257
▁fault	-6258
zegovina	-6259
▁frankly	-6260
▁marginal	-6261
umb	-6262
▁pled	-6263
▁repercus	-6264
iop	-6265
▁syn	-6266
▁desired	-6267
▁childrens	-6268
▁ownership	-6269
▁az	-6270
▁oly	-6271
▁kurd	-6272
ounded	-6273
▁olymp	-6274
▁dispar	-6275
▁notion	-6276
▁slovenia	-6277
▁enshrined	-6278
▁disadvantaged	-6279
▁parad	-6280
▁handling	-6281
riendly	-6282
▁fashion	-6283
▁reaffirm	-6284
▁repercussions	-6285
▁broadly	-6286
▁predict	-6287
▁zer	-6288
▁steel	-6289
▁verheugen	-6290
▁selfemploy	-6291
asc	-6292
▁remov	-6293
▁larges	-6294
▁switzerland	-6295
▁congo	-6296
▁seekers	-6297
▁fulfilled	-6298
▁ministerial	-6299
▁participants	-6300
kha	-6301
▁book	-6302
▁surprise	-6303
▁kil	-6304
▁hospital	-6305
▁originally	-6306
▁lt	-6307
▁interm	-6308
▁install	-6309
▁delivered	-6310
▁objections	-6311
▁hels	-6312
▁convey	-6313
▁adapted	-6314
▁alleged	-6315
▁flights	-6316
▁fischler	-6317
▁scotland	-6318
▁trem	-6319
▁twice	-6320
▁adj	-6321
▁investigate	-6322
▁unres	-6323
▁teleph	-6324
▁exposed	-6325
▁stick	-6326
▁consolidate	-6327
▁homes	-6328
▁undere	-6329
ded	-6330
▁label	-6331
▁foodstuffs	-6332
▁congress	-6333
ils	-6334
▁doll	-6335
▁pays	-6336
▁transl	-6337
ients	-6338
initi	-6339
▁attached	-6340
▁detriment	-6341
▁largescale	-6342
ork	-6343
inki	-6344
ipher	-6345
▁exploit	-6346
▁stricter	-6347
▁attractive	-6348
▁hat	-6349
▁reun	-6350
▁manif	-6351
keeping	-6352
▁draftsman	-6353
▁initiated	-6354
▁internationally	-6355
▁openly	-6356
▁removal	-6357
▁helsinki	-6358
▁hunger	-6359
▁scenari	-6360
▁accurate	-6361
▁speculation	-6362
▁whenever	-6363
▁component	-6364
▁mep	-6365
gging	-6366
ional	-6367
▁adult	-6368
▁innocent	-6369
▁missions	-6370
▁pace	-6371
▁posts	-6372
▁narrow	-6373
▁topical	-6374
▁platform	-6375
▁dependence	-6376
▁researchers	-6377
▁transferred	-6378
erb	-6379
▁guine	-6380
▁praise	-6381
▁frontex	-6382
▁presidencys	-6383
lex	-6384
rov	-6385
▁drast	-6386
▁silence	-6387
▁biotechn	-6388
▁pressing	-6389
▁transfers	-6390
▁horizontal	-6391
▁alarming	-6392
anas	-6393
▁comit	-6394
▁inspections	-6395
▁assured	-6396
asion	-6397
▁desper	-6398
▁modest	-6399
ief	-6400
▁ended	-6401
▁logic	-6402
▁iranian	-6403
▁seventh	-6404
▁findings	-6405
▁linguistic	-6406
▁sett	-6407
minent	-6408
▁bench	-6409
engl	-6410
▁errors	-6411
▁potentially	-6412
exist	-6413
▁romanian	-6414
▁secretari	-6415
▁genoc	-6416
▁minds	-6417
▁wished	-6418
▁monopoly	-6419
initiative	-6420
▁inappropriate	-6421
▁wholeheartedly	-6422
▁closing	-6423
▁assessing	-6424
▁satellite	-6425
▁comparable	-6426
▁coordinating	-6427
▁kill	-6428
▁guengl	-6429
uv	-6430
▁whol	-6431
▁marks	-6432
▁fallen	-6433
▁obstacle	-6434
▁hazardous	-6435
▁concessions	-6436
▁suspic	-6437
▁practically	-6438
▁overwhelming	-6439
▁scre	-6440
▁veter	-6441
▁attain	-6442
▁harmonise	-6443
▁constraints	-6444
▁serves	-6445
▁disturb	-6446
▁appalling	-6447
utor	-6448
▁cultiv	-6449
▁likewise	-6450
▁adaptation	-6451
▁highquality	-6452
ibly	-6453
▁applaud	-6454
▁santer	-6455
▁discipline	-6456
▁pillars	-6457
▁principal	-6458
▁recycling	-6459
▁ham	-6460
▁distance	-6461
▁owninitiative	-6462
▁mainstream	-6463
pel	-6464
▁eli	-6465
▁usd	-6466
▁empt	-6467
▁merg	-6468
▁comitology	-6469
▁dear	-6470
ski	-6471
ware	-6472
▁coexist	-6473
aci	-6474
▁vary	-6475
▁disse	-6476
▁earthqu	-6477
▁telling	-6478
ommod	-6479
▁accommod	-6480
▁cofinancing	-6481
▁characterised	-6482
met	-6483
aire	-6484
▁mich	-6485
▁stating	-6486
▁bases	-6487
▁hot	-6488
▁map	-6489
utors	-6490
▁appreciation	-6491
▁constituency	-6492
▁systematically	-6493
prising	-6494
▁pose	-6495
▁deciding	-6496
▁corporate	-6497
▁routes	-6498
▁normally	-6499
▁remained	-6500
▁fing	-6501
▁tremend	-6502
▁ga	-6503
gent	-6504
▁psy	-6505
▁swe	-6506
▁tuna	-6507
▁frust	-6508
▁manifest	-6509
▁persecution	-6510
oss	-6511
▁transposition	-6512
▁guil	-6513
▁race	-6514
▁games	-6515
▁college	-6516
fur	-6517
how	-6518
▁insp	-6519
▁online	-6520
▁deadlines	-6521
▁liber	-6522
▁offences	-6523
▁references	-6524
▁travelling	-6525
▁cold	-6526
▁denoun	-6527
▁disarm	-6528
▁generate	-6529
▁interference	-6530
▁automatically	-6531
▁pas	-6532
▁cypri	-6533
▁bottom	-6534
▁relief	-6535
▁placing	-6536
▁demanded	-6537
▁investing	-6538
▁insec	-6539
▁reassure	-6540
▁recorded	-6541
▁civilians	-6542
▁cab	-6543
▁tape	-6544
ooks	-6545
▁stopped	-6546
▁survival	-6547
▁criticised	-6548
▁incidentally	-6549
▁protectionism	-6550
▁colon	-6551
▁passport	-6552
▁criticisms	-6553
▁pesticides	-6554
▁ing	-6555
▁foster	-6556
friendly	-6557
▁estimates	-6558
▁democracies	-6559
iro	-6560
ience	-6561
▁tens	-6562
▁syner	-6563
▁besides	-6564
▁morator	-6565
▁stimulate	-6566
▁pensioners	-6567
▁confed	-6568
▁detain	-6569
▁complied	-6570
▁fragment	-6571
▁gir	-6572
▁vill	-6573
zz	-6574
▁camps	-6575
▁plain	-6576
▁psych	-6577
▁floods	-6578
▁guilty	-6579
▁cancell	-6580
▁vienna	-6581
▁incidents	-6582
▁taiw	-6583
▁wellbe	-6584
▁channels	-6585
▁unpre	-6586
▁formally	-6587
▁grand	-6588
▁grants	-6589
▁indepth	-6590
▁worried	-6591
▁subjected	-6592
▁thoroughly	-6593
▁mort	-6594
▁retirement	-6595
▁punishment	-6596
▁baron	-6597
▁dispro	-6598
▁wellbeing	-6599
lla	-6600
▁onto	-6601
▁multi	-6602
▁mexico	-6603
▁authorised	-6604
▁ecos	-6605
▁wake	-6606
▁decade	-6607
▁algeria	-6608
▁assessed	-6609
state	-6610
▁saddam	-6611
▁topics	-6612
▁obtaining	-6613
▁ideological	-6614
▁verts	-6615
▁kurdish	-6616
▁substit	-6617
▁genocide	-6618
▁era	-6619
▁sensit	-6620
▁underest	-6621
ano	-6622
▁reb	-6623
▁imperial	-6624
▁planet	-6625
▁underp	-6626
▁victory	-6627
▁contributes	-6628
▁embry	-6629
oke	-6630
▁na	-6631
isons	-6632
▁eurost	-6633
▁resign	-6634
▁producer	-6635
▁everyday	-6636
▁vertsale	-6637
▁scheduled	-6638
rum	-6639
▁emot	-6640
▁gall	-6641
▁lesson	-6642
▁refusal	-6643
▁root	-6644
▁reminded	-6645
▁moratorium	-6646
▁christians	-6647
▁dual	-6648
▁avoiding	-6649
▁conscience	-6650
▁desta	-6651
▁cfsp	-6652
cedented	-6653
▁greense	-6654
▁passing	-6655
▁isolation	-6656
▁unprecedented	-6657
▁unh	-6658
ulates	-6659
▁sustained	-6660
▁secretariat	-6661
▁hamas	-6662
▁differ	-6663
▁demonstration	-6664
▁arrangement	-6665
▁facilitating	-6666
▁transnational	-6667
oper	-6668
ernity	-6669
▁delicate	-6670
▁timor	-6671
acerb	-6672
▁exacerb	-6673
ss	-6674
sify	-6675
inian	-6676
▁stresses	-6677
▁selfemployed	-6678
▁towns	-6679
▁heavily	-6680
ivoc	-6681
▁arises	-6682
▁realised	-6683
pens	-6684
▁confron	-6685
▁incomes	-6686
▁depth	-6687
▁milit	-6688
▁tempt	-6689
▁presidencies	-6690
▁beneficiaries	-6691
stan	-6692
▁lev	-6693
▁liv	-6694
enses	-6695
▁viet	-6696
▁memor	-6697
▁smoking	-6698
▁armen	-6699
▁throw	-6700
▁withdrawn	-6701
▁cash	-6702
▁removing	-6703
▁recognising	-6704
mer	-6705
▁caucas	-6706
▁contradiction	-6707
▁artific	-6708
▁publish	-6709
▁vietnam	-6710
establish	-6711
▁returned	-6712
rew	-6713
ystem	-6714
▁zero	-6715
ifiable	-6716
▁illness	-6717
▁arrested	-6718
▁toxic	-6719
connect	-6720
▁analyse	-6721
▁solving	-6722
astic	-6723
▁datab	-6724
▁patents	-6725
▁phr	-6726
iguous	-6727
▁acced	-6728
▁contra	-6729
▁latvia	-6730
▁reviewed	-6731
▁born	-6732
▁remarkable	-6733
▁conj	-6734
▁remit	-6735
▁split	-6736
ugg	-6737
▁empty	-6738
▁input	-6739
▁estonia	-6740
▁biological	-6741
band	-6742
▁hiv	-6743
▁hague	-6744
▁misle	-6745
▁abolish	-6746
▁persuade	-6747
▁atmosphere	-6748
▁emphasises	-6749
▁elimination	-6750
ki	-6751
▁baroness	-6752
▁occupied	-6753
▁addresses	-6754
ko	-6755
▁accus	-6756
▁foods	-6757
▁assert	-6758
▁strange	-6759
▁monteneg	-6760
▁instability	-6761
▁observ	-6762
▁club	-6763
▁deem	-6764
▁divide	-6765
▁indicates	-6766
▁translation	-6767
berg	-6768
rade	-6769
▁gulf	-6770
▁anywhere	-6771
▁irresponsible	-6772
▁ase	-6773
▁adding	-6774
▁creative	-6775
board	-6776
▁ball	-6777
▁thinks	-6778
▁attempting	-6779
lers	-6780
▁asian	-6781
▁consists	-6782
▁clarified	-6783
▁meanwhile	-6784
▁southeast	-6785
▁reinforced	-6786
▁responding	-6787
▁prerequisite	-6788
ule	-6789
holds	-6790
▁tren	-6791
lusive	-6792
▁differently	-6793
develop	-6794
▁interventions	-6795
▁accom	-6796
▁advis	-6797
▁livest	-6798
undering	-6799
▁ultimate	-6800
▁indispens	-6801
▁accompl	-6802
▁reverse	-6803
▁quantity	-6804
▁workforce	-6805
▁registered	-6806
▁disproportion	-6807
lihood	-6808
▁livestock	-6809
▁monopolies	-6810
▁unp	-6811
▁camp	-6812
▁chief	-6813
▁posed	-6814
▁safer	-6815
inder	-6816
▁poet	-6817
▁exclude	-6818
▁surprising	-6819
▁gold	-6820
▁vent	-6821
▁webs	-6822
▁disparities	-6823
▁disadvantage	-6824
gs	-6825
abe	-6826
▁kinn	-6827
▁securing	-6828
▁greenseuropean	-6829
▁reass	-6830
▁banana	-6831
missible	-6832
▁integral	-6833
rehensible	-6834
▁indispensable	-6835
▁gases	-6836
▁madrid	-6837
▁trends	-6838
▁diverse	-6839
▁reproductive	-6840
▁governed	-6841
▁instruct	-6842
▁overlook	-6843
cific	-6844
▁pointing	-6845
▁wonderful	-6846
▁sis	-6847
▁liter	-6848
▁patient	-6849
▁scept	-6850
▁propag	-6851
▁limiting	-6852
ecd	-6853
▁ends	-6854
▁concepts	-6855
▁messages	-6856
ea	-6857
▁pick	-6858
▁sees	-6859
▁shock	-6860
▁quarter	-6861
▁announcement	-6862
▁mine	-6863
▁disgra	-6864
▁strikes	-6865
▁believed	-6866
▁abolished	-6867
▁ecosystem	-6868
▁identification	-6869
▁administrations	-6870
rage	-6871
▁ours	-6872
▁rare	-6873
▁recover	-6874
emocratic	-6875
▁loud	-6876
▁formula	-6877
▁caucasus	-6878
▁expenses	-6879
▁witnessed	-6880
▁plus	-6881
▁nordic	-6882
▁served	-6883
▁ensures	-6884
▁isolated	-6885
▁veterinary	-6886
aded	-6887
▁donor	-6888
orously	-6889
▁genetic	-6890
ran	-6891
oeuv	-6892
▁frat	-6893
▁taiwan	-6894
▁advances	-6895
▁advisory	-6896
▁inequality	-6897
▁orientation	-6898
▁ferre	-6899
▁compli	-6900
▁doctors	-6901
enous	-6902
▁criticise	-6903
▁totalitarian	-6904
▁describe	-6905
▁manoeuv	-6906
▁unequivoc	-6907
city	-6908
▁lowest	-6909
▁cells	-6910
▁relationships	-6911
▁mix	-6912
▁acad	-6913
▁moves	-6914
▁knowing	-6915
▁illegally	-6916
att	-6917
iasm	-6918
estion	-6919
oration	-6920
▁dav	-6921
▁cycle	-6922
▁poorer	-6923
▁frontiers	-6924
▁mosc	-6925
▁emphasize	-6926
▁inevitable	-6927
▁aspirations	-6928
▁combination	-6929
▁availability	-6930
▁commod	-6931
▁nonpro	-6932
cription	-6933
▁tac	-6934
▁adjour	-6935
▁fleets	-6936
▁energies	-6937
▁condemnation	-6938
sist	-6939
▁adm	-6940
▁camb	-6941
▁doors	-6942
▁recession	-6943
ola	-6944
▁epid	-6945
▁publicly	-6946
▁dair	-6947
▁satisfy	-6948
▁disgrace	-6949
▁absor	-6950
▁oppon	-6951
ares	-6952
▁gather	-6953
▁mental	-6954
▁tribun	-6955
▁enthusiasm	-6956
asmus	-6957
▁match	-6958
▁judici	-6959
▁enjoyed	-6960
ners	-6961
▁von	-6962
▁dairy	-6963
▁washing	-6964
▁abortion	-6965
kers	-6966
▁blair	-6967
▁caught	-6968
▁philosophy	-6969
organ	-6970
▁civilisation	-6971
▁grass	-6972
▁incur	-6973
onic	-6974
▁nic	-6975
▁footing	-6976
▁roll	-6977
▁strive	-6978
▁confirms	-6979
▁inconsist	-6980
▁precedent	-6981
▁manufacturing	-6982
▁god	-6983
▁techni	-6984
▁claimed	-6985
▁midterm	-6986
▁autonomous	-6987
rier	-6988
▁mart	-6989
▁prud	-6990
▁cattle	-6991
▁concluding	-6992
xual	-6993
▁proactive	-6994
▁twel	-6995
▁conform	-6996
▁licences	-6997
mense	-6998
▁emerge	-6999
▁immense	-7000
▁promotes	-7001
▁appeared	-7002
▁interpreted	-7003
ori	-7004
▁gets	-7005
▁eurostat	-7006
▁adh	-7007
▁sah	-7008
▁finger	-7009
▁earmarked	-7010
▁mobilisation	-7011
▁faces	-7012
▁yield	-7013
▁gratitude	-7014
▁threatening	-7015
▁encouragement	-7016
▁feels	-7017
▁premium	-7018
▁multinationals	-7019
▁iv	-7020
▁drop	-7021
▁liqu	-7022
▁champ	-7023
▁vague	-7024
▁dioxide	-7025
akis	-7026
▁aiming	-7027
▁arctic	-7028
▁preference	-7029
▁tremendous	-7030
etor	-7031
stone	-7032
▁teachers	-7033
ioned	-7034
▁kong	-7035
▁cloth	-7036
▁exert	-7037
▁hur	-7038
itudes	-7039
▁handled	-7040
▁chancell	-7041
▁copyright	-7042
▁requiring	-7043
▁intelligence	-7044
▁dar	-7045
▁unb	-7046
liers	-7047
▁catal	-7048
▁paris	-7049
▁olympic	-7050
▁organized	-7051
▁publication	-7052
▁extrad	-7053
▁pragmatic	-7054
▁confidential	-7055
pran	-7056
ushing	-7057
▁broken	-7058
▁outbre	-7059
▁focuses	-7060
▁guidance	-7061
▁habit	-7062
▁haiti	-7063
▁privatisation	-7064
water	-7065
▁presum	-7066
▁kinnock	-7067
▁warming	-7068
▁indirectly	-7069
▁pipeline	-7070
▁displaced	-7071
▁imf	-7072
▁barb	-7073
▁dates	-7074
▁interoper	-7075
▁perce	-7076
▁supran	-7077
inations	-7078
▁combine	-7079
▁delayed	-7080
▁location	-7081
▁hong	-7082
▁magn	-7083
▁remedy	-7084
▁abandoned	-7085
ald	-7086
cap	-7087
▁luck	-7088
ipheral	-7089
▁simplifying	-7090
▁signals	-7091
▁sectoral	-7092
▁exploited	-7093
▁lays	-7094
▁roots	-7095
▁licence	-7096
▁survive	-7097
▁workplace	-7098
▁petition	-7099
za	-7100
▁manag	-7101
▁nigeria	-7102
▁positively	-7103
gments	-7104
▁minors	-7105
▁remote	-7106
▁judiciary	-7107
▁toys	-7108
▁zones	-7109
▁rhetor	-7110
▁integrating	-7111
▁units	-7112
▁convincing	-7113
▁problematic	-7114
obod	-7115
▁veto	-7116
▁preferred	-7117
▁slaughter	-7118
▁encourages	-7119
▁quantities	-7120
▁transmission	-7121
accession	-7122
anged	-7123
▁secondary	-7124
▁regulating	-7125
▁controlling	-7126
sign	-7127
▁postponed	-7128
▁supranational	-7129
oren	-7130
osev	-7131
icable	-7132
oliberal	-7133
▁harmonization	-7134
▁reconsid	-7135
▁expressly	-7136
▁indonesia	-7137
erity	-7138
▁banning	-7139
▁spectrum	-7140
▁suspension	-7141
▁broadcasting	-7142
ensions	-7143
isations	-7144
▁dedicated	-7145
▁determining	-7146
▁sn	-7147
▁merit	-7148
▁stead	-7149
▁bananas	-7150
▁milosev	-7151
▁conjunction	-7152
▁husse	-7153
▁priorit	-7154
▁radioactive	-7155
▁reim	-7156
▁violated	-7157
ourse	-7158
▁prest	-7159
▁harbour	-7160
▁colombia	-7161
▁enforced	-7162
▁eurozone	-7163
▁neoliberal	-7164
▁diagn	-7165
▁utter	-7166
▁symbolic	-7167
▁york	-7168
▁mixed	-7169
▁driven	-7170
▁unified	-7171
▁holid	-7172
▁attrib	-7173
▁player	-7174
▁preaccession	-7175
tical	-7176
▁allev	-7177
▁bow	-7178
▁adjustments	-7179
▁preservation	-7180
▁beij	-7181
▁drinking	-7182
▁invested	-7183
▁weaknesses	-7184
▁traceability	-7185
▁understandable	-7186
uber	-7187
▁aqu	-7188
▁pity	-7189
▁brutal	-7190
▁coalition	-7191
▁chancellor	-7192
▁complexity	-7193
utious	-7194
▁guide	-7195
▁floren	-7196
▁minist	-7197
▁accepts	-7198
erson	-7199
▁scra	-7200
▁faster	-7201
▁consolidated	-7202
▁deregulation	-7203
▁gn	-7204
▁uphe	-7205
▁feasible	-7206
▁enhancing	-7207
▁cul	-7208
idden	-7209
▁lobb	-7210
▁pron	-7211
▁inhum	-7212
▁tabling	-7213
▁rejecting	-7214
▁montenegro	-7215
▁calm	-7216
▁resolute	-7217
▁highlevel	-7218
▁recognize	-7219
▁execution	-7220
▁preferences	-7221
▁await	-7222
▁score	-7223
▁urged	-7224
▁initiate	-7225
▁selection	-7226
lock	-7227
▁capt	-7228
▁runs	-7229
▁papers	-7230
▁pluralism	-7231
▁professionals	-7232
▁disappointment	-7233
contro	-7234
▁generated	-7235
▁packaging	-7236
ige	-7237
tini	-7238
▁oecd	-7239
ultane	-7240
▁holds	-7241
▁agents	-7242
▁simultane	-7243
▁earn	-7244
▁complaint	-7245
▁suppliers	-7246
▁unsatisf	-7247
▁derogation	-7248
tem	-7249
▁egf	-7250
▁medicine	-7251
▁shortage	-7252
▁imbalances	-7253
▁separation	-7254
▁shop	-7255
▁analyses	-7256
icking	-7257
▁prostit	-7258
▁underpin	-7259
▁regrettably	-7260
ani	-7261
ett	-7262
▁reluct	-7263
▁depending	-7264
ibi	-7265
▁cambod	-7266
▁alter	-7267
▁girls	-7268
▁monti	-7269
▁renewal	-7270
▁wishing	-7271
▁suddenly	-7272
▁specified	-7273
▁expos	-7274
▁sheep	-7275
▁twelve	-7276
▁beijing	-7277
▁implies	-7278
▁concentrated	-7279
▁demonstrations	-7280
▁devote	-7281
eken	-7282
▁continuous	-7283
itect	-7284
power	-7285
▁russias	-7286
▁diplomacy	-7287
▁establishes	-7288
▁decomm	-7289
▁lawyers	-7290
▁acquired	-7291
▁architect	-7292
▁deliberately	-7293
fire	-7294
▁halt	-7295
▁smugg	-7296
▁surplus	-7297
▁cloning	-7298
▁disability	-7299
▁wideranging	-7300
▁hide	-7301
▁balkan	-7302
▁mercury	-7303
▁paradox	-7304
▁derogations	-7305
akers	-7306
▁hydro	-7307
▁backed	-7308
▁retail	-7309
▁defended	-7310
▁ties	-7311
▁wood	-7312
▁components	-7313
▁biotechnology	-7314
▁rigid	-7315
osexual	-7316
▁ingred	-7317
▁coexistence	-7318
▁eliminating	-7319
▁decommission	-7320
▁fran	-7321
etermination	-7322
▁communicate	-7323
fort	-7324
▁laeken	-7325
▁eligible	-7326
▁selfd	-7327
▁hesit	-7328
▁tensions	-7329
▁threaten	-7330
▁advocates	-7331
▁approving	-7332
▁officially	-7333
▁ridic	-7334
▁harass	-7335
▁circulation	-7336
ooking	-7337
▁affirm	-7338
▁fragile	-7339
▁station	-7340
▁belonging	-7341
▁sam	-7342
▁ster	-7343
▁bears	-7344
ography	-7345
▁ending	-7346
▁boy	-7347
▁mines	-7348
▁customers	-7349
▁admittedly	-7350
▁preserving	-7351
cile	-7352
▁dupl	-7353
others	-7354
▁darfur	-7355
▁diam	-7356
▁swobod	-7357
▁profess	-7358
▁porn	-7359
▁entails	-7360
▁intense	-7361
▁tension	-7362
▁responded	-7363
rass	-7364
▁muslim	-7365
▁residents	-7366
▁invitation	-7367
▁intolerable	-7368
▁unsatisfactory	-7369
tur	-7370
aret	-7371
▁reforming	-7372
▁exemptions	-7373
can	-7374
▁nons	-7375
▁flags	-7376
▁seats	-7377
▁arisen	-7378
▁scarce	-7379
▁deprived	-7380
▁blow	-7381
▁judges	-7382
▁cautious	-7383
▁salaries	-7384
▁reactions	-7385
bb	-7386
▁books	-7387
▁supre	-7388
▁fishery	-7389
▁momentum	-7390
▁explanatory	-7391
▁detrimental	-7392
vis	-7393
anube	-7394
▁cruel	-7395
▁manip	-7396
▁somal	-7397
▁returning	-7398
▁kh	-7399
atom	-7400
paper	-7401
▁asks	-7402
▁incap	-7403
▁moscow	-7404
▁misleading	-7405
▁conferences	-7406
▁indications	-7407
▁conservatives	-7408
▁conceal	-7409
▁existed	-7410
▁tariffs	-7411
▁definitions	-7412
▁authors	-7413
▁telephone	-7414
▁fulfilling	-7415
▁channel	-7416
▁trouble	-7417
ama	-7418
grad	-7419
owski	-7420
▁detect	-7421
▁seemed	-7422
▁feeding	-7423
▁located	-7424
▁demonstrating	-7425
keste	-7426
▁indig	-7427
▁hoping	-7428
▁senior	-7429
▁organising	-7430
▁hars	-7431
uesday	-7432
▁hither	-7433
▁formulated	-7434
▁unamb	-7435
▁marking	-7436
▁bolkeste	-7437
▁underlined	-7438
▁washington	-7439
atri	-7440
▁abst	-7441
▁tuesday	-7442
▁delivery	-7443
▁undermining	-7444
▁defe	-7445
▁lands	-7446
▁specul	-7447
▁hitherto	-7448
▁continuity	-7449
▁sensitivity	-7450
▁infringements	-7451
▁selling	-7452
▁hypocris	-7453
▁substantive	-7454
ray	-7455
▁subsidy	-7456
▁courageous	-7457
back	-7458
▁danube	-7459
▁proves	-7460
▁revealed	-7461
▁box	-7462
▁outl	-7463
▁enrich	-7464
▁sooner	-7465
▁neutral	-7466
▁expresses	-7467
ician	-7468
▁rect	-7469
▁reop	-7470
▁carriers	-7471
▁software	-7472
▁hypocrisy	-7473
▁tomorrows	-7474
▁counterfeiting	-7475
scale	-7476
▁sharp	-7477
▁listed	-7478
▁journey	-7479
▁formed	-7480
▁sac	-7481
▁gaps	-7482
▁knew	-7483
▁grown	-7484
▁guant	-7485
▁famous	-7486
▁theory	-7487
▁arbitrary	-7488
▁capacities	-7489
▁domain	-7490
▁blocked	-7491
▁operates	-7492
▁earthquake	-7493
▁insecurity	-7494
▁interconnect	-7495
▁knowledgebased	-7496
▁intermedi	-7497
▁distortions	-7498
rote	-7499
▁fly	-7500
assad	-7501
▁milosevic	-7502
▁accountable	-7503
▁wild	-7504
▁palaci	-7505
▁refusing	-7506
▁opponents	-7507
eded	-7508
▁mcc	-7509
▁repair	-7510
iscrimin	-7511
▁euratom	-7512
▁issuing	-7513
▁purchase	-7514
▁thoughts	-7515
▁worthwhile	-7516
▁hav	-7517
▁jar	-7518
▁offence	-7519
▁discover	-7520
▁pig	-7521
▁stu	-7522
▁beaut	-7523
▁breed	-7524
▁censure	-7525
▁summary	-7526
▁swiftly	-7527
▁identifying	-7528
▁disappointing	-7529
gi	-7530
roots	-7531
▁excise	-7532
▁learnt	-7533
▁worker	-7534
▁wanting	-7535
▁massac	-7536
▁noticed	-7537
aria	-7538
▁escape	-7539
▁michel	-7540
▁electorate	-7541
▁resc	-7542
▁pregn	-7543
▁breaches	-7544
▁newspaper	-7545
▁objection	-7546
▁recip	-7547
▁merits	-7548
▁caution	-7549
▁dismiss	-7550
▁recruit	-7551
▁tourist	-7552
▁attitudes	-7553
▁transportation	-7554
▁shut	-7555
▁attended	-7556
▁christmas	-7557
▁restriction	-7558
▁conventional	-7559
▁complementary	-7560
seen	-7561
▁allies	-7562
▁termin	-7563
▁optimistic	-7564
▁redundancies	-7565
▁dg	-7566
ipped	-7567
▁enem	-7568
▁anyway	-7569
▁bridge	-7570
▁refund	-7571
▁compare	-7572
▁streets	-7573
▁premature	-7574
▁yesterdays	-7575
gans	-7576
▁wis	-7577
▁church	-7578
▁billions	-7579
▁restricting	-7580
yer	-7581
eters	-7582
▁bankrupt	-7583
▁reconcile	-7584
▁propaganda	-7585
▁financially	-7586
▁newly	-7587
▁contem	-7588
▁destabil	-7589
▁officers	-7590
▁condemning	-7591
▁distinguish	-7592
wa	-7593
▁oli	-7594
▁sat	-7595
▁wave	-7596
▁finds	-7597
▁calcul	-7598
▁tendency	-7599
▁nationality	-7600
▁au	-7601
icip	-7602
▁lend	-7603
▁injust	-7604
▁certific	-7605
▁indigenous	-7606
esty	-7607
izes	-7608
▁mug	-7609
icious	-7610
▁reput	-7611
▁partial	-7612
▁departments	-7613
▁solv	-7614
▁career	-7615
▁inland	-7616
▁unt	-7617
▁awaiting	-7618
▁scenario	-7619
▁judgments	-7620
▁structured	-7621
▁automatic	-7622
▁ukrainian	-7623
▁dan	-7624
▁reformed	-7625
▁cooperative	-7626
ille	-7627
lessly	-7628
▁cuban	-7629
▁acquire	-7630
▁pursuit	-7631
▁shap	-7632
▁martin	-7633
▁wholly	-7634
▁distinct	-7635
ek	-7636
ldr	-7637
▁speaks	-7638
▁weekend	-7639
▁vigilant	-7640
▁incorrect	-7641
▁cry	-7642
▁wors	-7643
▁lengthy	-7644
▁permits	-7645
▁frattini	-7646
▁mutually	-7647
▁textiles	-7648
▁undermined	-7649
▁deterioration	-7650
bles	-7651
▁escal	-7652
▁phare	-7653
▁airline	-7654
▁palacio	-7655
tes	-7656
ander	-7657
ressing	-7658
▁reimbur	-7659
▁adapting	-7660
▁ambassad	-7661
▁advocated	-7662
▁inspectors	-7663
tar	-7664
▁commerce	-7665
▁mobilise	-7666
▁successes	-7667
▁devastating	-7668
cc	-7669
aming	-7670
▁pending	-7671
▁agreeing	-7672
▁dictator	-7673
▁bold	-7674
icating	-7675
▁impart	-7676
▁serbian	-7677
▁homosexual	-7678
fall	-7679
▁cig	-7680
▁iii	-7681
▁calc	-7682
▁iceland	-7683
▁liberty	-7684
▁bolkestein	-7685
▁azer	-7686
▁bigger	-7687
▁realities	-7688
▁meaningful	-7689
▁privileged	-7690
▁constituents	-7691
▁contradictory	-7692
▁rot	-7693
apers	-7694
▁river	-7695
▁weapon	-7696
mentioned	-7697
▁albanian	-7698
▁redundant	-7699
▁disarmament	-7700
law	-7701
▁write	-7702
▁switch	-7703
▁killing	-7704
▁compensate	-7705
▁peacekeeping	-7706
icting	-7707
long	-7708
resp	-7709
▁andor	-7710
▁confederal	-7711
▁sky	-7712
▁coins	-7713
▁deput	-7714
▁phrase	-7715
▁belongs	-7716
▁swoboda	-7717
▁sentences	-7718
▁cc	-7719
▁ts	-7720
▁gest	-7721
spapers	-7722
▁organs	-7723
▁mothers	-7724
▁centuries	-7725
▁proportionality	-7726
▁gh	-7727
aper	-7728
▁cfp	-7729
▁mem	-7730
▁geared	-7731
▁newspapers	-7732
kind	-7733
▁owe	-7734
opolit	-7735
▁summar	-7736
▁update	-7737
▁barnier	-7738
▁reception	-7739
▁reestablish	-7740
oa	-7741
▁theme	-7742
▁memory	-7743
▁kilomet	-7744
▁excessively	-7745
oked	-7746
▁fasc	-7747
▁insult	-7748
▁robust	-7749
▁voices	-7750
▁fruitful	-7751
▁differing	-7752
▁poettering	-7753
▁oce	-7754
▁pit	-7755
▁coton	-7756
▁slowly	-7757
▁mainstreaming	-7758
▁costly	-7759
▁protests	-7760
▁allowances	-7761
▁engagement	-7762
hn	-7763
▁dimin	-7764
▁liquid	-7765
▁viewed	-7766
▁prestige	-7767
▁seriousness	-7768
▁prostitution	-7769
ested	-7770
▁survey	-7771
▁frequent	-7772
▁certification	-7773
▁prede	-7774
ictions	-7775
▁basque	-7776
▁vitally	-7777
▁expecting	-7778
▁supporters	-7779
▁mu	-7780
▁acute	-7781
aterally	-7782
▁cotonou	-7783
▁rhetoric	-7784
baij	-7785
▁user	-7786
▁breat	-7787
▁suspend	-7788
ilaterally	-7789
▁technically	-7790
▁incompatible	-7791
osur	-7792
▁tested	-7793
▁discovered	-7794
▁counterpart	-7795
▁precondition	-7796
▁deliberations	-7797
▁absent	-7798
▁twentyf	-7799
▁teaching	-7800
▁ceasefire	-7801
kel	-7802
▁mag	-7803
▁tick	-7804
▁harsh	-7805
alistic	-7806
▁prejudice	-7807
anen	-7808
coni	-7809
▁anybody	-7810
▁feelings	-7811
▁herzegovina	-7812
▁shel	-7813
▁mentions	-7814
▁dimensions	-7815
ita	-7816
▁guinea	-7817
▁wellknown	-7818
▁dare	-7819
▁seve	-7820
▁breaking	-7821
▁ideology	-7822
▁contamination	-7823
▁liberalization	-7824
dem	-7825
dez	-7826
▁reward	-7827
▁drought	-7828
▁hussein	-7829
▁painful	-7830
▁maternity	-7831
akh	-7832
▁eat	-7833
cribe	-7834
▁align	-7835
▁buying	-7836
▁azerbaij	-7837
▁inclusive	-7838
▁lift	-7839
▁meda	-7840
▁manoeuvre	-7841
▁mentioning	-7842
laim	-7843
▁jer	-7844
▁nit	-7845
▁breast	-7846
▁awarded	-7847
▁conditional	-7848
▁cooperating	-7849
opoul	-7850
▁rede	-7851
▁assent	-7852
▁defici	-7853
▁pollut	-7854
▁cheaper	-7855
▁impunity	-7856
▁apologise	-7857
▁laundering	-7858
▁reunification	-7859
▁dil	-7860
▁clin	-7861
▁pane	-7862
▁shipy	-7863
▁summits	-7864
do	-7865
pled	-7866
▁bare	-7867
▁stal	-7868
iled	-7869
▁unclear	-7870
▁hearings	-7871
▁moderate	-7872
▁interfere	-7873
▁continually	-7874
kharov	-7875
▁poses	-7876
▁prisons	-7877
▁sakharov	-7878
▁instances	-7879
▁aer	-7880
▁rum	-7881
▁secur	-7882
▁charged	-7883
▁foresee	-7884
▁scandalous	-7885
▁quantitative	-7886
▁whe	-7887
annes	-7888
istrib	-7889
▁municip	-7890
▁founding	-7891
▁competitors	-7892
▁leon	-7893
itives	-7894
▁chern	-7895
▁murdered	-7896
▁recourse	-7897
▁translated	-7898
dep	-7899
bled	-7900
▁fab	-7901
▁maur	-7902
urances	-7903
▁hinder	-7904
▁thirty	-7905
ilingual	-7906
▁forecasts	-7907
ione	-7908
athers	-7909
▁roadm	-7910
▁relaunch	-7911
▁conscious	-7912
▁prosecutor	-7913
card	-7914
atories	-7915
▁weaken	-7916
▁tribunal	-7917
▁launching	-7918
aces	-7919
▁scour	-7920
▁tolerate	-7921
ell	-7922
▁debts	-7923
▁letters	-7924
▁outline	-7925
▁recommends	-7926
▁capabilities	-7927
nn	-7928
▁conven	-7929
▁drastic	-7930
▁interreg	-7931
▁reinforcing	-7932
▁vene	-7933
▁rescue	-7934
▁assumed	-7935
▁cigaret	-7936
▁redistrib	-7937
▁qualitative	-7938
▁appropriately	-7939
irer	-7940
▁cra	-7941
▁opens	-7942
▁referendums	-7943
sig	-7944
▁nutr	-7945
makers	-7946
▁accum	-7947
▁handed	-7948
▁severely	-7949
▁collected	-7950
▁incapable	-7951
▁predecess	-7952
▁ba	-7953
obyl	-7954
▁jean	-7955
habil	-7956
▁intim	-7957
▁rehabil	-7958
▁chernobyl	-7959
▁destination	-7960
▁love	-7961
ulture	-7962
▁indian	-7963
▁minimal	-7964
eper	-7965
eness	-7966
▁site	-7967
▁unus	-7968
▁erika	-7969
▁	-7970
e	-7971
t	-7972
o	-7973
i	-7974
a	-7975
n	-7976
s	-7977
r	-7978
h	-7979
l	-7980
c	-7981
d	-7982
u	-7983
m	-7984
p	-7985
f	-7986
g	-7987
w	-7988
y	-7989
b	-7990
v	-7991
k	-7992
x	-7993
j	-7994
q	-7995
z	-7996
