<unk>	0
<s>	0
</s>	0
▁d	-0
es	-1
▁l	-2
on	-3
en	-4
▁p	-5
▁c	-6
ti	-7
▁de	-8
▁s	-9
ur	-10
qu	-11
▁a	-12
re	-13
ent	-14
er	-15
an	-16
is	-17
▁la	-18
▁e	-19
ou	-20
▁m	-21
▁n	-22
▁qu	-23
it	-24
in	-25
▁t	-26
tion	-27
le	-28
▁le	-29
un	-30
ra	-31
ment	-32
▁pa	-33
▁et	-34
▁pr	-35
si	-36
om	-37
or	-38
▁les	-39
te	-40
il	-41
▁des	-42
▁f	-43
▁con	-44
▁po	-45
▁en	-46
▁que	-47
▁v	-48
▁r	-49
▁un	-50
▁ce	-51
ous	-52
▁au	-53
op	-54
▁com	-55
▁par	-56
▁j	-57
me	-58
ation	-59
ant	-60
ire	-61
ce	-62
ons	-63
ve	-64
ir	-65
ans	-66
est	-67
li	-68
us	-69
que	-70
▁nous	-71
▁pour	-72
ne	-73
▁du	-74
▁g	-75
ont	-76
▁b	-77
▁ma	-78
au	-79
se	-80
▁dans	-81
ci	-82
▁in	-83
ri	-84
▁pro	-85
▁qui	-86
at	-87
▁re	-88
lement	-89
al	-90
▁comm	-91
▁je	-92
▁une	-93
urop	-94
pp	-95
la	-96
ch	-97
mp	-98
ort	-99
tre	-100
▁pas	-101
▁sur	-102
▁est	-103
de	-104
▁fa	-105
sion	-106
▁se	-107
ar	-108
▁europ	-109
▁il	-110
▁ra	-111
res	-112
les	-113
ta	-114
urs	-115
ro	-116
▁pl	-117
▁europen	-118
el	-119
▁ne	-120
ff	-121
ie	-122
▁commis	-123
di	-124
tte	-125
ge	-126
ces	-127
ol	-128
ter	-129
mes	-130
ion	-131
os	-132
end	-133
mb	-134
▁ch	-135
▁tou	-136
eur	-137
sid	-138
▁mon	-139
▁plus	-140
▁me	-141
▁su	-142
ux	-143
tions	-144
▁tr	-145
▁ex	-146
pe	-147
our	-148
ul	-149
▁ac	-150
ue	-151
▁commission	-152
▁i	-153
ers	-154
oi	-155
ab	-156
ouv	-157
ques	-158
its	-159
pr	-160
lle	-161
▁sa	-162
▁av	-163
▁cette	-164
ut	-165
▁dun	-166
ens	-167
▁si	-168
▁cons	-169
▁tra	-170
tique	-171
▁da	-172
ys	-173
▁o	-174
▁rapp	-175
▁aux	-176
▁prsid	-177
tr	-178
▁mo	-179
ten	-180
ts	-181
ires	-182
▁dev	-183
ait	-184
ations	-185
▁sou	-186
▁pe	-187
ure	-188
▁li	-189
▁di	-190
▁h	-191
▁so	-192
▁conc	-193
ence	-194
aire	-195
▁ave	-196
▁vo	-197
▁europenne	-198
▁ca	-199
▁sont	-200
ord	-201
ins	-202
ance	-203
▁mais	-204
tes	-205
▁lun	-206
▁poli	-207
▁prop	-208
▁prsident	-209
ats	-210
ction	-211
fi	-212
du	-213
cti	-214
ale	-215
▁ent	-216
ssi	-217
▁avec	-218
tu	-219
▁ces	-220
ine	-221
▁rg	-222
je	-223
nes	-224
aux	-225
and	-226
▁no	-227
▁gr	-228
ma	-229
▁imp	-230
▁mes	-231
▁ser	-232
▁parti	-233
▁parlement	-234
ration	-235
▁quil	-236
▁co	-237
▁pays	-238
tri	-239
▁lunion	-240
ise	-241
ments	-242
oir	-243
▁rapport	-244
sieur	-245
▁monsieur	-246
sent	-247
▁app	-248
va	-249
▁cest	-250
ien	-251
▁tre	-252
▁ou	-253
▁comp	-254
▁dis	-255
ient	-256
▁do	-257
aut	-258
da	-259
ique	-260
ouve	-261
▁vous	-262
▁res	-263
for	-264
cc	-265
▁comme	-266
▁memb	-267
ite	-268
▁an	-269
▁ont	-270
▁don	-271
che	-272
ct	-273
ven	-274
▁tats	-275
▁ga	-276
▁fait	-277
ui	-278
▁dro	-279
▁tout	-280
▁entre	-281
osi	-282
▁politique	-283
▁commun	-284
▁dire	-285
▁ques	-286
▁mme	-287
rer	-288
seil	-289
▁conseil	-290
▁dune	-291
gn	-292
onne	-293
tra	-294
▁pu	-295
▁vi	-296
▁membres	-297
aires	-298
▁fin	-299
ors	-300
iss	-301
▁per	-302
▁dc	-303
ois	-304
ss	-305
ble	-306
▁fon	-307
▁lin	-308
ves	-309
co	-310
▁galement	-311
▁eff	-312
vi	-313
ouver	-314
orte	-315
▁nom	-316
cte	-317
fin	-318
bre	-319
▁aussi	-320
▁notre	-321
▁ja	-322
▁cer	-323
▁concer	-324
lles	-325
▁inter	-326
▁vou	-327
▁nouve	-328
age	-329
ille	-330
cess	-331
▁acc	-332
dre	-333
bl	-334
▁trava	-335
▁mar	-336
ca	-337
▁leur	-338
ants	-339
▁import	-340
ilit	-341
▁rs	-342
▁ob	-343
oc	-344
▁dp	-345
▁te	-346
▁faire	-347
▁bien	-348
elle	-349
tiques	-350
▁y	-351
▁es	-352
mer	-353
▁ins	-354
vent	-355
rit	-356
lic	-357
lis	-358
oy	-359
▁cela	-360
ures	-361
▁tous	-362
▁certa	-363
▁aut	-364
olu	-365
ande	-366
ense	-367
▁pers	-368
▁avons	-369
▁proposi	-370
titu	-371
min	-372
▁doit	-373
▁son	-374
▁ter	-375
▁trs	-376
cu	-377
▁trans	-378
dra	-379
able	-380
ales	-381
endre	-382
▁question	-383
▁pri	-384
▁deux	-385
▁am	-386
ig	-387
▁ad	-388
cul	-389
vel	-390
velop	-391
met	-392
▁na	-393
▁prog	-394
▁peut	-395
▁ni	-396
▁travail	-397
▁db	-398
▁lg	-399
ag	-400
▁man	-401
mble	-402
▁dvelop	-403
era	-404
ises	-405
mment	-406
▁lo	-407
tru	-408
▁probl	-409
▁pre	-410
vre	-411
tg	-412
▁dem	-413
▁diff	-414
▁devons	-415
sse	-416
▁conom	-417
▁lors	-418
▁rp	-419
▁nos	-420
tin	-421
tive	-422
▁ti	-423
ions	-424
▁droits	-425
▁u	-426
▁for	-427
jet	-428
▁prsent	-429
▁col	-430
enti	-431
dh	-432
fs	-433
▁al	-434
▁poin	-435
itu	-436
▁contre	-437
ist	-438
▁march	-439
▁dm	-440
▁non	-441
▁toute	-442
▁produ	-443
▁peu	-444
▁gar	-445
lg	-446
og	-447
ines	-448
▁pouv	-449
▁ncess	-450
▁lh	-451
tire	-452
▁jai	-453
▁nombre	-454
▁voudra	-455
▁elle	-456
▁soci	-457
sie	-458
ctive	-459
▁som	-460
▁at	-461
anc	-462
ais	-463
cip	-464
use	-465
▁sc	-466
▁lon	-467
▁voudrais	-468
▁cla	-469
con	-470
▁dveloppe	-471
ier	-472
▁donc	-473
urope	-474
▁exp	-475
ante	-476
▁jus	-477
▁cit	-478
▁grou	-479
ner	-480
▁car	-481
ler	-482
rait	-483
rent	-484
teurs	-485
▁nest	-486
▁ren	-487
▁ses	-488
ud	-489
▁sans	-490
rois	-491
▁tant	-492
▁prem	-493
▁din	-494
▁proposition	-495
▁dom	-496
▁dveloppement	-497
cep	-498
ues	-499
insi	-500
▁cr	-501
▁dont	-502
▁prin	-503
▁ainsi	-504
▁on	-505
jour	-506
▁disp	-507
olution	-508
ose	-509
ult	-510
▁lue	-511
vis	-512
cit	-513
nement	-514
▁soit	-515
lu	-516
irement	-517
▁ar	-518
core	-519
alit	-520
▁commiss	-521
▁encore	-522
ver	-523
ende	-524
ds	-525
ang	-526
▁possi	-527
▁quel	-528
▁citoy	-529
▁situ	-530
urit	-531
▁der	-532
▁or	-533
ide	-534
▁lar	-535
jecti	-536
▁leurope	-537
isse	-538
as	-539
▁ag	-540
iste	-541
bles	-542
▁dbat	-543
cun	-544
ime	-545
jourdh	-546
jourdhui	-547
iques	-548
mps	-549
voir	-550
cation	-551
▁cas	-552
pa	-553
cd	-554
▁commissaire	-555
▁repr	-556
▁scurit	-557
sions	-558
▁compr	-559
iti	-560
ram	-561
▁pub	-562
▁daut	-563
▁effe	-564
▁ab	-565
▁dern	-566
▁important	-567
anti	-568
aine	-569
iter	-570
▁cet	-571
▁conf	-572
▁suis	-573
▁accord	-574
▁fr	-575
▁rais	-576
▁faut	-577
▁seu	-578
yst	-579
▁pense	-580
▁mesures	-581
ser	-582
lo	-583
▁rglement	-584
▁point	-585
▁program	-586
bilit	-587
rence	-588
els	-589
▁situation	-590
▁matire	-591
▁syst	-592
▁min	-593
eure	-594
ies	-595
vir	-596
cher	-597
▁sag	-598
▁posi	-599
ocra	-600
▁concern	-601
▁citoyens	-602
▁consid	-603
des	-604
▁doi	-605
isation	-606
▁gouver	-607
onnes	-608
▁leurs	-609
▁vis	-610
▁bud	-611
▁afin	-612
▁permet	-613
▁aujourdhui	-614
▁lib	-615
▁groupe	-616
▁lu	-617
▁sera	-618
▁nive	-619
mpl	-620
▁transp	-621
▁met	-622
cer	-623
uer	-624
tat	-625
▁lex	-626
▁gn	-627
▁doivent	-628
gan	-629
▁dcis	-630
▁actu	-631
▁dj	-632
▁politiques	-633
form	-634
nation	-635
▁sommes	-636
▁rel	-637
▁ds	-638
▁dmocra	-639
oci	-640
▁aff	-641
▁nation	-642
▁dautres	-643
trib	-644
▁pla	-645
elles	-646
▁cha	-647
▁respe	-648
▁conomique	-649
▁ass	-650
▁manire	-651
venir	-652
▁cadre	-653
▁part	-654
mple	-655
▁mil	-656
ences	-657
▁op	-658
▁concerne	-659
▁mada	-660
▁mont	-661
sieurs	-662
▁droit	-663
▁madame	-664
▁men	-665
der	-666
endant	-667
▁ba	-668
▁souti	-669
▁souh	-670
oup	-671
▁main	-672
▁internation	-673
▁quelle	-674
orts	-675
lier	-676
illeurs	-677
ange	-678
na	-679
onnement	-680
ours	-681
▁sp	-682
▁ng	-683
tif	-684
▁souhait	-685
pons	-686
▁objecti	-687
▁niveau	-688
tives	-689
▁avant	-690
▁directive	-691
▁temps	-692
ellement	-693
ccord	-694
▁servi	-695
▁propos	-696
▁grand	-697
▁aur	-698
vers	-699
▁secte	-700
▁lgis	-701
ral	-702
isme	-703
▁demand	-704
▁len	-705
▁problme	-706
erci	-707
▁rapporte	-708
▁collg	-709
▁coop	-710
▁certains	-711
vo	-712
▁dit	-713
vironnement	-714
prs	-715
▁garanti	-716
▁personnes	-717
lig	-718
ls	-719
▁ind	-720
im	-721
quer	-722
tilis	-723
ica	-724
▁procd	-725
▁ve	-726
rie	-727
▁concernant	-728
▁trait	-729
▁respons	-730
▁adop	-731
pu	-732
orit	-733
▁moy	-734
▁fe	-735
▁sign	-736
ables	-737
lon	-738
vant	-739
▁be	-740
▁toutes	-741
lique	-742
▁europens	-743
▁reprsent	-744
fois	-745
▁df	-746
▁entrepr	-747
oin	-748
▁ess	-749
▁raison	-750
▁prote	-751
▁questions	-752
▁parce	-753
omme	-754
tenir	-755
cier	-756
ances	-757
quoi	-758
▁pourquoi	-759
▁protection	-760
▁milli	-761
▁stra	-762
▁sagit	-763
▁fois	-764
▁contr	-765
▁ta	-766
▁europe	-767
▁autres	-768
▁quun	-769
▁aucun	-770
um	-771
▁jour	-772
▁consqu	-773
▁remer	-774
▁amende	-775
auc	-776
▁lie	-777
ente	-778
▁bes	-779
▁sein	-780
▁exe	-781
▁ils	-782
▁soi	-783
▁coopration	-784
taire	-785
▁domaine	-786
▁mis	-787
▁contrib	-788
▁ceux	-789
rs	-790
up	-791
▁prof	-792
▁vue	-793
▁moins	-794
▁cro	-795
▁systme	-796
mmes	-797
▁rela	-798
uses	-799
▁dcla	-800
▁princip	-801
▁communau	-802
▁rgion	-803
▁grande	-804
▁compte	-805
▁trois	-806
tis	-807
vention	-808
▁fonds	-809
▁mettre	-810
▁rf	-811
▁monde	-812
ctions	-813
lons	-814
▁particu	-815
▁institu	-816
▁seulement	-817
▁disc	-818
til	-819
▁lhomme	-820
▁problmes	-821
ents	-822
cle	-823
tamment	-824
▁stratg	-825
▁renfor	-826
orits	-827
issance	-828
▁rdu	-829
▁diffrent	-830
lio	-831
▁contin	-832
▁base	-833
▁puis	-834
▁demande	-835
▁contra	-836
▁programme	-837
ix	-838
▁mise	-839
ront	-840
▁ten	-841
▁k	-842
▁cour	-843
▁condi	-844
out	-845
▁organ	-846
▁sub	-847
▁vote	-848
▁consom	-849
▁rapporteur	-850
▁constitu	-851
quelle	-852
tention	-853
idi	-854
▁savoir	-855
▁gouvernement	-856
▁lob	-857
▁sous	-858
▁rsolution	-859
▁pouvoir	-860
▁secteur	-861
▁ngoci	-862
▁process	-863
▁processus	-864
▁pra	-865
aucoup	-866
▁beaucoup	-867
▁lim	-868
▁avoir	-869
▁lieu	-870
chn	-871
▁sta	-872
▁long	-873
▁prc	-874
jours	-875
▁dput	-876
tant	-877
tie	-878
▁particulier	-879
▁nor	-880
▁toujours	-881
▁budge	-882
▁appr	-883
▁possible	-884
ard	-885
xte	-886
▁toutefois	-887
▁va	-888
▁exemple	-889
▁autre	-890
▁sui	-891
trieur	-892
▁devrait	-893
▁cent	-894
pre	-895
▁crit	-896
tionne	-897
teur	-898
ert	-899
▁dur	-900
▁soutien	-901
▁entreprises	-902
▁sujet	-903
▁notamment	-904
▁sant	-905
ph	-906
▁laquelle	-907
▁rec	-908
ssemble	-909
▁particul	-910
▁ju	-911
▁cours	-912
▁eng	-913
▁services	-914
▁dou	-915
▁jes	-916
rai	-917
gie	-918
▁prendre	-919
▁financ	-920
vit	-921
▁mondi	-922
▁fer	-923
▁jur	-924
▁prsidence	-925
▁rus	-926
▁aprs	-927
▁commune	-928
▁essenti	-929
▁fonda	-930
puis	-931
veur	-932
▁supp	-933
▁votre	-934
▁quils	-935
oire	-936
▁rle	-937
▁propositions	-938
▁partie	-939
cie	-940
truct	-941
tro	-942
iser	-943
▁depuis	-944
▁faveur	-945
▁collgues	-946
▁rest	-947
▁dex	-948
▁recon	-949
▁dcision	-950
▁form	-951
▁personne	-952
▁diffi	-953
▁alors	-954
▁limp	-955
urer	-956
▁mesure	-957
▁pouvons	-958
▁fondament	-959
▁cri	-960
▁techn	-961
▁prom	-962
▁ncessaire	-963
▁spci	-964
▁vie	-965
▁effet	-966
▁lan	-967
▁uvre	-968
▁rsult	-969
▁effica	-970
abilit	-971
olog	-972
▁besoin	-973
tent	-974
▁public	-975
mploi	-976
rale	-977
pendant	-978
▁soient	-979
vons	-980
▁ress	-981
▁juridi	-982
▁cor	-983
▁femmes	-984
itia	-985
▁position	-986
fication	-987
ustri	-988
gne	-989
▁nouvelle	-990
▁simp	-991
▁recher	-992
▁annes	-993
▁amendements	-994
▁selon	-995
▁fonction	-996
▁den	-997
▁ici	-998
▁objectifs	-999
mis	-1000
▁respect	-1001
▁lapp	-1002
aines	-1003
▁serait	-1004
▁agri	-1005
lign	-1006
▁ai	-1007
tifs	-1008
▁nouveau	-1009
lation	-1010
tit	-1011
▁place	-1012
▁plan	-1013
▁lis	-1014
▁moi	-1015
raient	-1016
if	-1017
▁lui	-1018
▁tait	-1019
nent	-1020
ac	-1021
▁mal	-1022
▁nat	-1023
bo	-1024
▁dfin	-1025
▁dab	-1026
▁peuvent	-1027
▁contrle	-1028
▁soulign	-1029
entre	-1030
▁budget	-1031
▁consomma	-1032
▁dputs	-1033
▁rfor	-1034
cipe	-1035
rons	-1036
▁z	-1037
tement	-1038
▁conditions	-1039
▁port	-1040
ture	-1041
▁produits	-1042
▁deuxime	-1043
ali	-1044
▁cependant	-1045
cid	-1046
▁indi	-1047
enne	-1048
gment	-1049
gu	-1050
▁change	-1051
th	-1052
▁to	-1053
▁sest	-1054
usement	-1055
▁prsidente	-1056
▁unique	-1057
▁enfin	-1058
▁lam	-1059
▁inc	-1060
tenant	-1061
▁proch	-1062
▁ris	-1063
issement	-1064
lication	-1065
▁pres	-1066
unis	-1067
pes	-1068
▁quelques	-1069
▁expri	-1070
▁accep	-1071
▁crise	-1072
▁messieurs	-1073
lit	-1074
▁dau	-1075
▁stratgie	-1076
jou	-1077
quel	-1078
fier	-1079
▁faon	-1080
▁ans	-1081
▁ralis	-1082
ond	-1083
▁crois	-1084
▁principe	-1085
▁contribu	-1086
▁ner	-1087
▁pass	-1088
▁elles	-1089
rations	-1090
pul	-1091
▁flic	-1092
ources	-1093
ges	-1094
▁premire	-1095
▁sociale	-1096
▁premier	-1097
▁rgles	-1098
▁bon	-1099
▁rgions	-1100
▁maj	-1101
dames	-1102
▁mesdames	-1103
▁particip	-1104
▁ci	-1105
ourn	-1106
▁pche	-1107
aient	-1108
▁cap	-1109
▁cel	-1110
▁cult	-1111
▁hu	-1112
▁recherche	-1113
▁qualit	-1114
▁bonne	-1115
▁as	-1116
▁disposi	-1117
▁institutions	-1118
bil	-1119
▁rap	-1120
▁sens	-1121
▁eu	-1122
rions	-1123
▁particulirement	-1124
▁vers	-1125
lar	-1126
▁vrai	-1127
▁projet	-1128
▁comment	-1129
▁lenvironnement	-1130
▁europennes	-1131
▁sil	-1132
▁nouveaux	-1133
▁utilis	-1134
ouvent	-1135
▁jou	-1136
▁justi	-1137
▁char	-1138
▁rpons	-1139
oins	-1140
▁modi	-1141
▁tab	-1142
▁appro	-1143
ccup	-1144
▁ncessit	-1145
ordre	-1146
vesti	-1147
▁rem	-1148
endu	-1149
▁vol	-1150
▁millions	-1151
▁off	-1152
▁meille	-1153
▁lorsque	-1154
▁parten	-1155
▁lgislation	-1156
time	-1157
▁moyen	-1158
▁donn	-1159
▁viol	-1160
▁chaque	-1161
nements	-1162
cts	-1163
▁struct	-1164
cla	-1165
▁lutte	-1166
▁coh	-1167
▁ngociations	-1168
▁terme	-1169
▁bi	-1170
▁garantir	-1171
▁celle	-1172
▁gra	-1173
▁che	-1174
▁plu	-1175
▁assemble	-1176
▁clairement	-1177
ager	-1178
▁celui	-1179
▁daccord	-1180
per	-1181
▁tat	-1182
rable	-1183
▁dabord	-1184
▁bn	-1185
lent	-1186
▁lavenir	-1187
▁srie	-1188
▁nouvelles	-1189
▁popul	-1190
▁ph	-1191
▁sal	-1192
mme	-1193
jets	-1194
▁communautaire	-1195
▁plusieurs	-1196
▁maintenant	-1197
▁lag	-1198
▁exa	-1199
enir	-1200
▁nombreux	-1201
▁remercier	-1202
mm	-1203
▁ver	-1204
ode	-1205
▁social	-1206
▁procdure	-1207
ticle	-1208
ran	-1209
▁consommateurs	-1210
▁mois	-1211
mi	-1212
▁vot	-1213
nergie	-1214
▁rou	-1215
▁intr	-1216
lex	-1217
▁jespre	-1218
▁pourrait	-1219
▁moment	-1220
▁suff	-1221
antes	-1222
mais	-1223
▁trop	-1224
▁pris	-1225
▁seront	-1226
▁th	-1227
▁communaut	-1228
man	-1229
▁tur	-1230
mement	-1231
ites	-1232
▁concur	-1233
▁vrit	-1234
inement	-1235
▁voir	-1236
ieux	-1237
▁certaines	-1238
▁bnfi	-1239
▁fourn	-1240
gent	-1241
▁mdi	-1242
▁efficace	-1243
▁juridique	-1244
oses	-1245
istes	-1246
tres	-1247
▁finan	-1248
▁ges	-1249
▁abs	-1250
▁quune	-1251
▁pours	-1252
▁conclu	-1253
▁tatsunis	-1254
pri	-1255
ili	-1256
▁jusqu	-1257
ccs	-1258
▁reg	-1259
▁chose	-1260
▁socit	-1261
cca	-1262
▁sen	-1263
▁dam	-1264
▁inform	-1265
▁vale	-1266
▁dapp	-1267
▁membre	-1268
tout	-1269
▁rapide	-1270
▁points	-1271
cour	-1272
▁ir	-1273
▁autorits	-1274
▁fra	-1275
▁reste	-1276
ancement	-1277
▁efforts	-1278
▁ali	-1279
▁lense	-1280
ug	-1281
▁inf	-1282
▁prix	-1283
▁amlio	-1284
▁br	-1285
vision	-1286
▁surtout	-1287
▁visant	-1288
mbre	-1289
trodu	-1290
vient	-1291
tage	-1292
omm	-1293
vantage	-1294
cs	-1295
▁dmocratie	-1296
omp	-1297
cteurs	-1298
▁ressources	-1299
▁enf	-1300
alement	-1301
miner	-1302
▁libert	-1303
atre	-1304
ches	-1305
▁grce	-1306
▁donner	-1307
raph	-1308
▁budg	-1309
ression	-1310
ill	-1311
▁cl	-1312
tenu	-1313
▁prv	-1314
▁affaires	-1315
▁zon	-1316
▁atte	-1317
oser	-1318
▁avez	-1319
▁voulons	-1320
moi	-1321
istre	-1322
▁actuellement	-1323
▁constru	-1324
▁conomiques	-1325
▁tiens	-1326
▁face	-1327
arit	-1328
▁discus	-1329
▁laccord	-1330
▁para	-1331
cole	-1332
▁ref	-1333
▁outre	-1334
▁importante	-1335
▁rponse	-1336
▁responsabilit	-1337
matique	-1338
▁val	-1339
▁lemploi	-1340
▁solution	-1341
▁quelles	-1342
▁croissance	-1343
labo	-1344
▁commerci	-1345
▁dtre	-1346
▁initia	-1347
lment	-1348
▁fais	-1349
rique	-1350
▁consquent	-1351
▁davantage	-1352
▁spcifi	-1353
▁conn	-1354
▁semble	-1355
▁travailleurs	-1356
▁cli	-1357
tires	-1358
▁terr	-1359
ccasion	-1360
▁nerg	-1361
▁relations	-1362
▁soutenir	-1363
▁peuttre	-1364
▁intrieur	-1365
▁nu	-1366
▁att	-1367
erce	-1368
▁soli	-1369
quie	-1370
▁fut	-1371
▁peti	-1372
▁dernier	-1373
▁concurrence	-1374
▁lind	-1375
▁aucune	-1376
cile	-1377
▁instru	-1378
▁rien	-1379
titue	-1380
uros	-1381
▁sy	-1382
▁opp	-1383
iers	-1384
indre	-1385
▁transpar	-1386
▁gard	-1387
orter	-1388
issant	-1389
▁communi	-1390
▁run	-1391
men	-1392
vestisse	-1393
▁environnement	-1394
▁huma	-1395
▁clair	-1396
▁aspe	-1397
ctives	-1398
▁constitue	-1399
alog	-1400
▁rpon	-1401
▁telle	-1402
▁engage	-1403
▁internationale	-1404
▁cration	-1405
▁rep	-1406
▁reconn	-1407
▁anne	-1408
dop	-1409
liqu	-1410
ov	-1411
▁cat	-1412
andi	-1413
▁lensemble	-1414
▁volont	-1415
ole	-1416
uvre	-1417
▁domaines	-1418
▁programmes	-1419
▁progrs	-1420
▁prcis	-1421
▁cir	-1422
▁traite	-1423
ari	-1424
▁acti	-1425
▁perme	-1426
▁terror	-1427
▁sorte	-1428
▁organis	-1429
▁ense	-1430
▁prs	-1431
▁diffrents	-1432
▁paix	-1433
▁souvent	-1434
ing	-1435
▁gestion	-1436
ustrie	-1437
▁souligner	-1438
taires	-1439
▁normes	-1440
ctement	-1441
cont	-1442
▁dernire	-1443
liquer	-1444
▁aura	-1445
▁pens	-1446
▁lins	-1447
▁mieux	-1448
▁large	-1449
▁comb	-1450
▁termes	-1451
▁souhaite	-1452
▁augment	-1453
formation	-1454
▁texte	-1455
▁lesque	-1456
▁avait	-1457
▁seul	-1458
▁production	-1459
▁intg	-1460
▁transport	-1461
▁dcisions	-1462
▁larticle	-1463
▁justice	-1464
endement	-1465
▁trouver	-1466
▁extr	-1467
ub	-1468
▁dta	-1469
tim	-1470
▁remar	-1471
▁avis	-1472
▁sr	-1473
▁quant	-1474
▁libre	-1475
▁oblig	-1476
▁trang	-1477
▁ny	-1478
▁donnes	-1479
▁jeun	-1480
▁emp	-1481
▁imm	-1482
▁peup	-1483
▁dialog	-1484
▁sus	-1485
art	-1486
▁lgisla	-1487
▁rappel	-1488
▁lordre	-1489
gissement	-1490
omie	-1491
▁permette	-1492
val	-1493
▁comprom	-1494
▁population	-1495
▁ait	-1496
uite	-1497
▁aliment	-1498
dam	-1499
rica	-1500
▁majorit	-1501
▁rsultats	-1502
▁lau	-1503
bonne	-1504
▁existe	-1505
▁demander	-1506
▁ban	-1507
▁lequel	-1508
▁ann	-1509
ctu	-1510
▁renforcer	-1511
▁nont	-1512
▁lisbonne	-1513
▁ltat	-1514
▁compris	-1515
▁possibilit	-1516
texte	-1517
▁enfants	-1518
▁moyens	-1519
▁quand	-1520
▁lab	-1521
▁accords	-1522
▁fron	-1523
tisf	-1524
▁ncessaires	-1525
▁commerce	-1526
▁gnral	-1527
vits	-1528
▁docu	-1529
▁publique	-1530
▁loc	-1531
▁ple	-1532
▁lanne	-1533
▁natur	-1534
▁choses	-1535
ordin	-1536
table	-1537
▁laide	-1538
▁objectif	-1539
eureusement	-1540
▁convention	-1541
▁permettre	-1542
ossi	-1543
▁voie	-1544
mination	-1545
ablement	-1546
▁dentre	-1547
▁nations	-1548
fic	-1549
▁priode	-1550
vement	-1551
▁financement	-1552
▁quelque	-1553
▁dialogue	-1554
st	-1555
onn	-1556
▁groupes	-1557
▁crer	-1558
▁nombreuses	-1559
▁ty	-1560
▁limport	-1561
▁technolog	-1562
mage	-1563
▁fix	-1564
organ	-1565
▁suffis	-1566
▁international	-1567
▁linter	-1568
▁fau	-1569
▁actuelle	-1570
▁malh	-1571
ercice	-1572
alisation	-1573
▁devraient	-1574
▁recomm	-1575
oix	-1576
▁proccup	-1577
▁exig	-1578
▁sema	-1579
▁preu	-1580
▁remercie	-1581
▁commen	-1582
▁projets	-1583
▁satisf	-1584
▁tel	-1585
▁mod	-1586
▁rforme	-1587
dhsion	-1588
▁qua	-1589
▁russie	-1590
zmoi	-1591
▁certain	-1592
▁devrions	-1593
▁jeunes	-1594
▁simplement	-1595
▁juste	-1596
oph	-1597
culture	-1598
▁marchs	-1599
▁bar	-1600
ages	-1601
cel	-1602
▁poursui	-1603
lob	-1604
mon	-1605
▁turquie	-1606
rables	-1607
▁dmocratique	-1608
▁dass	-1609
land	-1610
▁ret	-1611
▁forme	-1612
▁nationaux	-1613
▁propre	-1614
▁compromis	-1615
▁relative	-1616
prit	-1617
▁quen	-1618
pend	-1619
▁compten	-1620
▁mer	-1621
ann	-1622
▁lat	-1623
ret	-1624
▁essentiel	-1625
▁titre	-1626
▁tour	-1627
▁encour	-1628
▁eux	-1629
▁confi	-1630
▁lamendement	-1631
main	-1632
▁hom	-1633
▁ensemble	-1634
vez	-1635
▁prsente	-1636
▁sommet	-1637
utt	-1638
▁seule	-1639
▁confor	-1640
▁intrts	-1641
omb	-1642
▁capit	-1643
▁stabilit	-1644
gence	-1645
to	-1646
▁tiers	-1647
ralis	-1648
▁w	-1649
▁constat	-1650
▁ministre	-1651
▁tota	-1652
▁lop	-1653
ger	-1654
eux	-1655
▁propose	-1656
▁dpens	-1657
▁lindustrie	-1658
demment	-1659
ses	-1660
▁suite	-1661
▁porte	-1662
rir	-1663
▁compa	-1664
▁confrence	-1665
▁dispositions	-1666
▁solid	-1667
▁ailleurs	-1668
▁contexte	-1669
▁dar	-1670
cter	-1671
▁raisons	-1672
▁pratique	-1673
▁vid	-1674
▁dter	-1675
▁vraiment	-1676
▁actions	-1677
▁union	-1678
jectif	-1679
▁jamais	-1680
ige	-1681
▁celles	-1682
▁priorit	-1683
▁entendu	-1684
▁principes	-1685
▁malheureusement	-1686
iller	-1687
mplois	-1688
rac	-1689
▁ralit	-1690
▁concr	-1691
▁sais	-1692
▁is	-1693
tilisation	-1694
▁fam	-1695
yer	-1696
▁fran	-1697
▁compti	-1698
▁chers	-1699
▁fis	-1700
illes	-1701
▁plutt	-1702
▁font	-1703
▁sud	-1704
▁difficile	-1705
inc	-1706
olutions	-1707
▁condu	-1708
▁divers	-1709
ibles	-1710
▁perspe	-1711
▁changement	-1712
vil	-1713
▁tent	-1714
▁voter	-1715
yons	-1716
lure	-1717
▁protg	-1718
▁permettezmoi	-1719
▁lcon	-1720
▁lobjectif	-1721
▁doute	-1722
▁renforce	-1723
▁er	-1724
▁convient	-1725
largissement	-1726
▁lnergie	-1727
▁st	-1728
▁pendant	-1729
cours	-1730
▁dclaration	-1731
▁lconomie	-1732
▁activits	-1733
▁vu	-1734
▁troisime	-1735
erai	-1736
uation	-1737
▁approche	-1738
endra	-1739
laboration	-1740
▁territ	-1741
▁financire	-1742
▁extrmement	-1743
▁limportance	-1744
▁rendre	-1745
▁lect	-1746
▁informations	-1747
▁transf	-1748
▁aide	-1749
▁deuros	-1750
▁dfini	-1751
ancer	-1752
▁cin	-1753
▁transparence	-1754
▁structur	-1755
▁tels	-1756
▁communication	-1757
▁dernires	-1758
▁glob	-1759
osition	-1760
▁risque	-1761
▁mondiale	-1762
▁rpondre	-1763
▁rapidement	-1764
anit	-1765
▁abord	-1766
▁personnel	-1767
▁mul	-1768
▁prpa	-1769
▁exist	-1770
▁ouver	-1771
▁parler	-1772
▁consquences	-1773
▁chang	-1774
▁orient	-1775
tait	-1776
▁parties	-1777
▁budgtaire	-1778
dire	-1779
nous	-1780
▁fi	-1781
▁mc	-1782
moins	-1783
▁rapports	-1784
rales	-1785
▁cause	-1786
cr	-1787
▁consci	-1788
▁rduire	-1789
▁preuve	-1790
▁recommand	-1791
▁durable	-1792
▁nationales	-1793
▁capa	-1794
▁guer	-1795
▁puisse	-1796
▁arri	-1797
▁supplment	-1798
▁profes	-1799
naissance	-1800
▁vois	-1801
trt	-1802
▁diffrentes	-1803
liques	-1804
▁dg	-1805
ister	-1806
▁eur	-1807
▁leff	-1808
▁nan	-1809
▁adopt	-1810
▁devant	-1811
▁systmes	-1812
▁permettra	-1813
▁solidarit	-1814
▁victi	-1815
▁dan	-1816
▁rjou	-1817
uni	-1818
▁rse	-1819
▁trouve	-1820
▁collgue	-1821
▁gouvernements	-1822
▁aspects	-1823
▁carac	-1824
▁lheure	-1825
agne	-1826
▁progres	-1827
▁fondamentaux	-1828
rant	-1829
▁pol	-1830
▁peux	-1831
▁favo	-1832
▁meilleure	-1833
▁dfense	-1834
▁ceci	-1835
▁nucla	-1836
▁conva	-1837
▁bas	-1838
ifie	-1839
cits	-1840
oss	-1841
▁demain	-1842
▁milit	-1843
▁reprsente	-1844
tal	-1845
▁ur	-1846
▁pn	-1847
▁importance	-1848
tionnel	-1849
▁cohsion	-1850
▁savons	-1851
▁frontires	-1852
▁amb	-1853
▁formation	-1854
▁continuer	-1855
▁dimp	-1856
▁unies	-1857
▁telles	-1858
▁nanmoins	-1859
▁appelle	-1860
temps	-1861
titude	-1862
▁attention	-1863
▁dh	-1864
igration	-1865
▁candi	-1866
lande	-1867
▁fort	-1868
▁laut	-1869
▁lutilisation	-1870
ventions	-1871
▁partage	-1872
ible	-1873
vs	-1874
▁exc	-1875
▁national	-1876
▁mention	-1877
▁hon	-1878
▁fliciter	-1879
ici	-1880
entes	-1881
▁rgime	-1882
ras	-1883
▁confiance	-1884
▁ens	-1885
▁davoir	-1886
▁lang	-1887
arti	-1888
▁difficul	-1889
▁mala	-1890
▁quau	-1891
▁fisc	-1892
▁critres	-1893
▁sch	-1894
▁candid	-1895
▁admin	-1896
▁appel	-1897
▁rsultat	-1898
▁dat	-1899
▁rser	-1900
▁taux	-1901
▁daction	-1902
▁ensuite	-1903
▁agricole	-1904
▁assurer	-1905
erts	-1906
▁cher	-1907
▁anim	-1908
▁aurait	-1909
▁rduction	-1910
▁sci	-1911
▁it	-1912
dap	-1913
▁prcd	-1914
gueur	-1915
▁vigueur	-1916
telle	-1917
▁promouv	-1918
graph	-1919
▁procdures	-1920
riculture	-1921
▁parmi	-1922
▁considre	-1923
udi	-1924
▁id	-1925
▁guerre	-1926
▁pourra	-1927
▁rc	-1928
▁llargissement	-1929
▁importants	-1930
issons	-1931
▁vritable	-1932
ciers	-1933
▁lobjet	-1934
▁sex	-1935
▁nergtique	-1936
▁lorsqu	-1937
▁quoi	-1938
armon	-1939
yant	-1940
▁valeurs	-1941
▁type	-1942
olument	-1943
tgration	-1944
▁terrorisme	-1945
▁signifie	-1946
▁prises	-1947
tile	-1948
▁industri	-1949
▁sociaux	-1950
▁donne	-1951
▁forte	-1952
act	-1953
▁mth	-1954
▁mcan	-1955
▁lagriculture	-1956
▁paragraph	-1957
▁financires	-1958
vor	-1959
▁propres	-1960
▁exercice	-1961
▁videmment	-1962
▁quili	-1963
ards	-1964
▁rev	-1965
▁dir	-1966
et	-1967
ends	-1968
▁mena	-1969
▁amrica	-1970
▁contraire	-1971
ienne	-1972
▁dbut	-1973
▁certainement	-1974
▁rellement	-1975
▁prochaine	-1976
eures	-1977
▁investisse	-1978
▁uniquement	-1979
issent	-1980
▁pauvre	-1981
▁subst	-1982
▁manque	-1983
▁lections	-1984
▁victimes	-1985
gnes	-1986
▁promouvoir	-1987
▁manif	-1988
▁accomp	-1989
▁quo	-1990
ton	-1991
doption	-1992
▁rappeler	-1993
▁compl	-1994
entifi	-1995
▁faudra	-1996
▁stat	-1997
tation	-1998
aise	-1999
▁introdu	-2000
dit	-2001
▁prise	-2002
▁autant	-2003
▁relatives	-2004
▁bal	-2005
▁amliorer	-2006
▁transports	-2007
▁dautre	-2008
▁culture	-2009
mation	-2010
▁constitution	-2011
▁but	-2012
igine	-2013
▁gen	-2014
venus	-2015
mettre	-2016
▁loccasion	-2017
▁tenir	-2018
▁partenari	-2019
vres	-2020
▁ri	-2021
▁esp	-2022
▁respecter	-2023
▁veut	-2024
▁grandes	-2025
tir	-2026
▁profession	-2027
▁service	-2028
▁uni	-2029
▁loin	-2030
▁alle	-2031
ori	-2032
▁quon	-2033
▁dispos	-2034
▁participation	-2035
▁hau	-2036
▁sep	-2037
▁lexp	-2038
▁financiers	-2039
▁cultur	-2040
icacit	-2041
▁discussion	-2042
▁parvenir	-2043
▁protger	-2044
pens	-2045
▁attein	-2046
▁dor	-2047
laire	-2048
▁loi	-2049
▁dsi	-2050
▁dois	-2051
▁prsenter	-2052
▁coordin	-2053
▁cots	-2054
▁heure	-2055
ennent	-2056
erais	-2057
▁gaz	-2058
▁dch	-2059
▁veiller	-2060
▁deuximement	-2061
▁travers	-2062
cident	-2063
ara	-2064
▁chacun	-2065
▁ven	-2066
▁continu	-2067
▁missions	-2068
▁centrale	-2069
▁envis	-2070
tivit	-2071
▁organisations	-2072
▁ladoption	-2073
▁comit	-2074
▁obser	-2075
▁passe	-2076
▁pauvret	-2077
▁bure	-2078
▁lments	-2079
▁dailleurs	-2080
▁priorits	-2081
▁zone	-2082
▁approp	-2083
umanit	-2084
▁discri	-2085
▁petites	-2086
nov	-2087
▁sensi	-2088
ez	-2089
istres	-2090
▁sau	-2091
istra	-2092
▁espa	-2093
▁chine	-2094
▁communautaires	-2095
ign	-2096
▁publics	-2097
▁rsou	-2098
▁dob	-2099
▁malg	-2100
▁absolument	-2101
▁action	-2102
▁ral	-2103
ducation	-2104
▁brit	-2105
▁excel	-2106
▁malgr	-2107
▁arr	-2108
▁lgalit	-2109
▁rfrence	-2110
▁tri	-2111
▁financier	-2112
blement	-2113
▁cra	-2114
▁prcisment	-2115
ctes	-2116
▁contribuer	-2117
▁intres	-2118
▁dpenses	-2119
▁amendement	-2120
▁accepter	-2121
▁dfi	-2122
▁force	-2123
▁ari	-2124
▁taient	-2125
vous	-2126
istance	-2127
▁corre	-2128
▁adopte	-2129
▁sociales	-2130
▁hommes	-2131
▁lapplication	-2132
▁suiv	-2133
tine	-2134
▁secteurs	-2135
uel	-2136
▁paragraphe	-2137
ain	-2138
▁runion	-2139
▁rformes	-2140
▁signal	-2141
▁lut	-2142
ortun	-2143
tons	-2144
▁fond	-2145
ob	-2146
▁totalement	-2147
uelle	-2148
culation	-2149
▁grands	-2150
▁quatre	-2151
▁travailler	-2152
▁affir	-2153
ctri	-2154
loit	-2155
▁pratiques	-2156
▁af	-2157
▁remp	-2158
▁gnrale	-2159
▁pos	-2160
▁britann	-2161
▁effective	-2162
▁lautre	-2163
▁nord	-2164
▁condam	-2165
▁parole	-2166
lais	-2167
▁mondial	-2168
▁quit	-2169
ad	-2170
itiative	-2171
▁lappro	-2172
▁statut	-2173
▁attend	-2174
▁partenaires	-2175
▁contribution	-2176
amment	-2177
▁dce	-2178
▁fac	-2179
▁traitement	-2180
▁dvelopper	-2181
▁sol	-2182
▁gens	-2183
▁document	-2184
▁administra	-2185
cri	-2186
▁judi	-2187
▁tenu	-2188
orde	-2189
▁importantes	-2190
abil	-2191
▁rend	-2192
▁violence	-2193
▁scientifi	-2194
▁peuple	-2195
▁ha	-2196
▁indis	-2197
▁produit	-2198
ira	-2199
▁rsoudre	-2200
▁crimin	-2201
contre	-2202
▁cestdire	-2203
▁sapp	-2204
▁considration	-2205
▁rv	-2206
▁dins	-2207
dres	-2208
▁dci	-2209
▁lgard	-2210
▁lch	-2211
▁inqu	-2212
▁coordination	-2213
▁conser	-2214
▁instruments	-2215
▁professionne	-2216
inion	-2217
▁difficults	-2218
▁capacit	-2219
▁destin	-2220
▁partenariat	-2221
▁pleinement	-2222
▁vos	-2223
▁valeur	-2224
po	-2225
▁jestime	-2226
▁signi	-2227
▁zones	-2228
▁ladhsion	-2229
ils	-2230
▁autor	-2231
tenti	-2232
▁ct	-2233
▁semaine	-2234
ude	-2235
▁dacc	-2236
bilits	-2237
▁lesquels	-2238
gir	-2239
▁voil	-2240
organisation	-2241
▁asse	-2242
▁rece	-2243
▁puisque	-2244
▁climatique	-2245
▁tro	-2246
▁montaire	-2247
▁succs	-2248
vaux	-2249
▁concent	-2250
gique	-2251
▁cal	-2252
trieure	-2253
▁bre	-2254
troph	-2255
▁dcid	-2256
▁bil	-2257
▁flicite	-2258
▁ministres	-2259
▁procs	-2260
▁permettant	-2261
▁lecture	-2262
▁puissent	-2263
astroph	-2264
lus	-2265
▁surve	-2266
oires	-2267
▁risques	-2268
▁catastroph	-2269
▁chi	-2270
▁pourtant	-2271
▁consac	-2272
▁ajou	-2273
▁venir	-2274
▁espr	-2275
▁util	-2276
▁besoins	-2277
cles	-2278
▁hab	-2279
▁initiatives	-2280
▁cinq	-2281
▁mand	-2282
▁entran	-2283
▁vient	-2284
▁indpend	-2285
▁tl	-2286
▁parlementaire	-2287
lusion	-2288
▁merci	-2289
▁minim	-2290
▁comptitivit	-2291
▁rglementation	-2292
▁renforcement	-2293
▁exigences	-2294
▁conformment	-2295
▁dlg	-2296
rier	-2297
▁nav	-2298
▁jouer	-2299
▁concep	-2300
▁auxque	-2301
▁bl	-2302
▁comptences	-2303
▁indispens	-2304
▁premirement	-2305
hi	-2306
▁pen	-2307
▁civil	-2308
▁vit	-2309
▁commencer	-2310
venu	-2311
▁promo	-2312
▁dexp	-2313
▁initiative	-2314
▁lassemble	-2315
ros	-2316
▁potenti	-2317
▁direction	-2318
▁rur	-2319
tivement	-2320
▁devoir	-2321
▁poursuivre	-2322
▁cru	-2323
▁laiss	-2324
ga	-2325
▁souten	-2326
isant	-2327
▁travaux	-2328
▁confir	-2329
▁pales	-2330
▁permis	-2331
▁laccs	-2332
▁civi	-2333
iennent	-2334
▁adopter	-2335
▁refus	-2336
▁secon	-2337
ennes	-2338
▁apporter	-2339
▁comprendre	-2340
▁aider	-2341
▁adqu	-2342
▁discussions	-2343
ai	-2344
▁partis	-2345
▁rpub	-2346
▁chmage	-2347
bal	-2348
▁jours	-2349
▁alimentaire	-2350
▁tend	-2351
▁pourraient	-2352
▁cou	-2353
▁dossi	-2354
▁possibilits	-2355
▁coup	-2356
ock	-2357
▁lacc	-2358
▁conclusion	-2359
▁spcifiques	-2360
raux	-2361
verse	-2362
▁favor	-2363
▁lide	-2364
▁hist	-2365
par	-2366
ze	-2367
▁camp	-2368
▁nature	-2369
▁lom	-2370
▁dinter	-2371
▁limm	-2372
▁heures	-2373
▁passer	-2374
▁longtemps	-2375
▁aides	-2376
culteurs	-2377
xe	-2378
▁candidats	-2379
diter	-2380
rou	-2381
▁libralis	-2382
agement	-2383
▁solutions	-2384
▁civile	-2385
▁dal	-2386
oli	-2387
▁atta	-2388
▁assez	-2389
▁choix	-2390
▁quali	-2391
▁ayant	-2392
▁viter	-2393
▁modle	-2394
▁sance	-2395
▁effets	-2396
▁peine	-2397
▁mort	-2398
▁lutter	-2399
▁six	-2400
fait	-2401
ass	-2402
▁immdi	-2403
ibilit	-2404
▁mmes	-2405
▁derniers	-2406
▁entire	-2407
▁dix	-2408
▁navons	-2409
merais	-2410
▁leuro	-2411
▁fig	-2412
ution	-2413
lant	-2414
vie	-2415
▁dclarations	-2416
▁simple	-2417
▁nen	-2418
▁linformation	-2419
voy	-2420
▁lment	-2421
▁montre	-2422
▁promotion	-2423
▁banque	-2424
uva	-2425
▁souff	-2426
▁pose	-2427
▁liste	-2428
diction	-2429
▁mauva	-2430
▁pression	-2431
▁prf	-2432
▁rvision	-2433
dits	-2434
▁sin	-2435
▁dfis	-2436
▁lune	-2437
▁mess	-2438
▁apport	-2439
▁trouv	-2440
▁responsables	-2441
▁devra	-2442
▁spcifique	-2443
▁rpublique	-2444
join	-2445
tirer	-2446
diterran	-2447
▁reprsentants	-2448
▁euro	-2449
▁fonctionnement	-2450
▁formul	-2451
ement	-2452
ru	-2453
▁collaboration	-2454
▁anal	-2455
▁renouve	-2456
tient	-2457
▁instrument	-2458
▁radi	-2459
▁milliards	-2460
▁deurope	-2461
cteur	-2462
▁jaimerais	-2463
▁responsabil	-2464
▁colle	-2465
▁lefficacit	-2466
▁soule	-2467
▁mari	-2468
▁damlio	-2469
▁dcembre	-2470
▁profit	-2471
▁roy	-2472
novation	-2473
cessi	-2474
▁mandat	-2475
jus	-2476
▁celleci	-2477
ane	-2478
rak	-2479
▁dy	-2480
▁estim	-2481
▁dpend	-2482
upart	-2483
▁plupart	-2484
▁lintrt	-2485
▁constituent	-2486
▁humanit	-2487
lau	-2488
▁circulation	-2489
rastruct	-2490
cemment	-2491
atri	-2492
▁rcemment	-2493
▁lintgration	-2494
▁investissements	-2495
▁lesquelles	-2496
▁conclusions	-2497
▁vont	-2498
▁confront	-2499
▁oct	-2500
▁rjouis	-2501
▁flex	-2502
▁portug	-2503
▁dn	-2504
▁drog	-2505
dies	-2506
▁lorganisation	-2507
▁france	-2508
▁vent	-2509
▁lducation	-2510
▁bnfici	-2511
▁dclar	-2512
sile	-2513
orient	-2514
cadre	-2515
▁vise	-2516
fie	-2517
▁nationale	-2518
istan	-2519
▁charge	-2520
▁visvis	-2521
▁dtat	-2522
vation	-2523
ograph	-2524
▁dimen	-2525
▁discu	-2526
▁facilit	-2527
▁bel	-2528
▁occasion	-2529
rences	-2530
cons	-2531
▁conclure	-2532
▁yeux	-2533
▁pi	-2534
▁dnergie	-2535
▁requ	-2536
▁rele	-2537
▁emplois	-2538
▁obs	-2539
▁responsabilits	-2540
▁changements	-2541
▁allons	-2542
▁effectivement	-2543
▁consult	-2544
ps	-2545
▁haut	-2546
▁constater	-2547
▁claire	-2548
▁lir	-2549
▁paie	-2550
▁rom	-2551
coles	-2552
▁conflit	-2553
▁nuclaire	-2554
▁pensons	-2555
▁soutiens	-2556
▁suivi	-2557
▁dsor	-2558
▁dsormais	-2559
▁dche	-2560
▁traits	-2561
▁condition	-2562
▁fournir	-2563
aume	-2564
▁rester	-2565
iens	-2566
▁dmont	-2567
▁sug	-2568
▁stri	-2569
▁actuel	-2570
▁approuv	-2571
▁engagement	-2572
▁retra	-2573
▁conta	-2574
▁itali	-2575
▁comptes	-2576
▁agriculteurs	-2577
▁internationales	-2578
▁territoire	-2579
▁naturellement	-2580
▁royaume	-2581
▁forces	-2582
yse	-2583
anger	-2584
▁construction	-2585
ateur	-2586
fica	-2587
fications	-2588
rateurs	-2589
▁essa	-2590
tionnelle	-2591
▁certaine	-2592
▁anti	-2593
▁parfois	-2594
▁tradi	-2595
isent	-2596
quet	-2597
▁mener	-2598
▁japp	-2599
▁animaux	-2600
▁structurels	-2601
▁lesprit	-2602
mat	-2603
▁favorable	-2604
▁perspectives	-2605
▁lai	-2606
▁mission	-2607
lir	-2608
viter	-2609
▁producteurs	-2610
▁oub	-2611
▁semb	-2612
▁ligne	-2613
▁chois	-2614
valuation	-2615
▁chiff	-2616
▁dispon	-2617
ana	-2618
▁savez	-2619
▁parfait	-2620
▁prt	-2621
▁quilibre	-2622
▁convainc	-2623
▁exprim	-2624
▁lattention	-2625
▁moder	-2626
ate	-2627
tabl	-2628
▁supplmentaires	-2629
▁rfug	-2630
▁veux	-2631
▁lgiti	-2632
ot	-2633
▁opportun	-2634
▁responsable	-2635
▁illg	-2636
▁vnements	-2637
▁fonde	-2638
▁positif	-2639
sement	-2640
▁publiques	-2641
vier	-2642
▁souhaiterais	-2643
▁srieux	-2644
▁rati	-2645
ourg	-2646
▁circons	-2647
cent	-2648
▁fondamental	-2649
▁infor	-2650
▁liberts	-2651
sence	-2652
▁inac	-2653
ouvrir	-2654
▁dchets	-2655
zvous	-2656
▁simpli	-2657
▁caractre	-2658
▁pron	-2659
▁dli	-2660
▁indivi	-2661
▁socits	-2662
rais	-2663
manie	-2664
▁juridiques	-2665
▁juin	-2666
▁suivre	-2667
▁train	-2668
▁pren	-2669
gner	-2670
▁palestin	-2671
▁dange	-2672
▁intervention	-2673
▁atteindre	-2674
del	-2675
▁prvention	-2676
oma	-2677
▁combat	-2678
▁dangere	-2679
▁linitiative	-2680
▁maintenir	-2681
issements	-2682
▁grave	-2683
ulent	-2684
▁consquence	-2685
▁prser	-2686
net	-2687
alits	-2688
xim	-2689
lits	-2690
▁tch	-2691
▁prvo	-2692
▁technique	-2693
▁dbats	-2694
▁engagements	-2695
▁chance	-2696
▁inaccep	-2697
ouverture	-2698
▁dt	-2699
▁adres	-2700
odes	-2701
▁dimin	-2702
eng	-2703
▁suffisamment	-2704
▁royaumeuni	-2705
oncer	-2706
▁senti	-2707
▁technologies	-2708
landais	-2709
▁niveaux	-2710
▁complex	-2711
▁libralisation	-2712
▁stock	-2713
▁inten	-2714
▁trangres	-2715
▁parle	-2716
ature	-2717
▁consiste	-2718
▁esprons	-2719
▁nga	-2720
▁kos	-2721
▁voix	-2722
▁dici	-2723
▁cur	-2724
▁judici	-2725
▁prsence	-2726
▁lev	-2727
▁biais	-2728
quent	-2729
▁partir	-2730
▁prob	-2731
▁bient	-2732
▁techniques	-2733
▁dispose	-2734
▁menace	-2735
▁paquet	-2736
rement	-2737
▁raliser	-2738
▁dimension	-2739
▁disposition	-2740
▁jen	-2741
▁relatif	-2742
▁us	-2743
▁perman	-2744
▁trangre	-2745
iles	-2746
▁brux	-2747
tien	-2748
cations	-2749
▁peuples	-2750
▁obtenir	-2751
intes	-2752
▁importe	-2753
▁message	-2754
▁lentre	-2755
▁agir	-2756
▁cruci	-2757
▁intrt	-2758
▁indispensable	-2759
▁assur	-2760
▁discrimination	-2761
▁adh	-2762
die	-2763
▁sanc	-2764
magne	-2765
uvres	-2766
▁prvoit	-2767
illance	-2768
▁meilleur	-2769
tier	-2770
▁affe	-2771
▁lignes	-2772
orique	-2773
oles	-2774
▁livre	-2775
▁genre	-2776
lait	-2777
▁agricoles	-2778
▁tard	-2779
mine	-2780
▁sanctions	-2781
▁directement	-2782
▁damliorer	-2783
▁accs	-2784
▁voi	-2785
▁rencont	-2786
▁contenu	-2787
▁bruxelles	-2788
gr	-2789
rite	-2790
▁contrles	-2791
eurs	-2792
▁jan	-2793
▁parl	-2794
▁suppri	-2795
▁procsver	-2796
tances	-2797
▁bonnes	-2798
▁pourrons	-2799
▁capital	-2800
▁veulent	-2801
▁utile	-2802
▁excellent	-2803
▁faisant	-2804
ateurs	-2805
▁hong	-2806
quili	-2807
▁rfugis	-2808
▁pacte	-2809
▁limit	-2810
▁limite	-2811
▁manifest	-2812
kra	-2813
truction	-2814
▁documents	-2815
▁graves	-2816
▁soumis	-2817
▁participer	-2818
▁armes	-2819
▁pollu	-2820
▁clos	-2821
▁relig	-2822
ha	-2823
▁nex	-2824
▁extrieur	-2825
▁associ	-2826
▁lintention	-2827
▁auquel	-2828
▁vident	-2829
▁celuici	-2830
ovo	-2831
▁dinformation	-2832
hen	-2833
▁aller	-2834
▁dfinition	-2835
▁tabli	-2836
gh	-2837
▁poser	-2838
▁kosovo	-2839
▁mditerran	-2840
▁mi	-2841
▁procsverbal	-2842
ctif	-2843
lables	-2844
▁proccupations	-2845
▁reconnaissance	-2846
ris	-2847
ctivit	-2848
▁continue	-2849
▁comporte	-2850
▁formu	-2851
vite	-2852
▁largent	-2853
▁dure	-2854
llement	-2855
▁allem	-2856
▁communes	-2857
▁limmigration	-2858
▁tche	-2859
▁voy	-2860
fond	-2861
▁devenir	-2862
reg	-2863
▁dirige	-2864
▁positive	-2865
▁particulire	-2866
anie	-2867
▁envers	-2868
▁adap	-2869
▁prochain	-2870
▁lass	-2871
▁convi	-2872
▁rseaux	-2873
▁reu	-2874
▁dfendre	-2875
▁harmon	-2876
▁surveillance	-2877
▁dossier	-2878
▁tradu	-2879
▁troite	-2880
▁garantie	-2881
▁britannique	-2882
▁trib	-2883
▁sait	-2884
▁utiliser	-2885
▁intress	-2886
▁lomc	-2887
ccident	-2888
ron	-2889
▁gu	-2890
▁rejet	-2891
▁offici	-2892
▁crdits	-2893
uration	-2894
▁lont	-2895
▁perspective	-2896
▁budgtaires	-2897
▁exer	-2898
▁consommation	-2899
▁reconnatre	-2900
▁voit	-2901
▁dmocratiques	-2902
▁mut	-2903
▁principaux	-2904
▁janvier	-2905
laud	-2906
tence	-2907
▁laction	-2908
▁rempla	-2909
▁labo	-2910
▁ambiti	-2911
▁semaines	-2912
sive	-2913
▁exprimer	-2914
▁durant	-2915
▁poss	-2916
▁regret	-2917
ismes	-2918
▁augmentation	-2919
▁labsence	-2920
▁demplois	-2921
▁lencontre	-2922
▁humains	-2923
▁impliqu	-2924
▁mentionn	-2925
▁connaissance	-2926
▁gre	-2927
▁let	-2928
tel	-2929
▁fl	-2930
cution	-2931
▁audel	-2932
▁directives	-2933
▁dlgation	-2934
▁pauvres	-2935
▁certes	-2936
▁crdi	-2937
▁tirer	-2938
▁popu	-2939
▁hier	-2940
▁pouvoirs	-2941
▁tourisme	-2942
▁lorsquil	-2943
▁consens	-2944
▁erre	-2945
▁mai	-2946
▁tex	-2947
▁pros	-2948
▁date	-2949
▁budgets	-2950
▁invit	-2951
▁excep	-2952
▁rseau	-2953
ora	-2954
▁monna	-2955
▁militaire	-2956
▁montrer	-2957
▁conomie	-2958
▁conna	-2959
cis	-2960
▁nai	-2961
▁salue	-2962
troduction	-2963
inte	-2964
▁pha	-2965
nie	-2966
▁dent	-2967
istration	-2968
istence	-2969
▁dplo	-2970
▁obsta	-2971
▁tran	-2972
ligne	-2973
▁traiter	-2974
▁prend	-2975
resp	-2976
pl	-2977
naires	-2978
▁parlementaires	-2979
▁naur	-2980
mo	-2981
uit	-2982
▁dop	-2983
▁daide	-2984
▁lal	-2985
▁pil	-2986
▁limites	-2987
▁trafic	-2988
▁mars	-2989
▁mdias	-2990
▁discuter	-2991
chent	-2992
enda	-2993
usse	-2994
▁insu	-2995
▁lv	-2996
▁paral	-2997
▁exige	-2998
▁entend	-2999
▁lamlio	-3000
ctifs	-3001
▁proto	-3002
▁pme	-3003
ueil	-3004
▁ro	-3005
▁maxim	-3006
atoire	-3007
rez	-3008
iliation	-3009
▁conomies	-3010
▁mot	-3011
rend	-3012
▁conflits	-3013
▁deven	-3014
▁dorigine	-3015
▁faisons	-3016
let	-3017
matiques	-3018
▁laisser	-3019
▁vhi	-3020
▁significa	-3021
▁comptence	-3022
▁alimentaires	-3023
▁moyennes	-3024
▁humanitaire	-3025
▁procder	-3026
▁longue	-3027
▁rig	-3028
▁rgul	-3029
▁pes	-3030
▁actes	-3031
▁lavis	-3032
▁retr	-3033
▁aient	-3034
▁efficaces	-3035
▁souligne	-3036
▁affaire	-3037
▁lad	-3038
▁russi	-3039
▁chez	-3040
▁lies	-3041
ute	-3042
▁inacceptable	-3043
▁espagn	-3044
▁lopp	-3045
mire	-3046
▁cot	-3047
▁oui	-3048
▁exemp	-3049
▁nouvel	-3050
▁applaud	-3051
▁sim	-3052
▁restri	-3053
▁largement	-3054
tenus	-3055
agers	-3056
▁encourager	-3057
▁consensus	-3058
att	-3059
quis	-3060
lin	-3061
▁dasile	-3062
▁dmocrates	-3063
▁heureux	-3064
▁lesp	-3065
▁compagn	-3066
▁transfront	-3067
▁catg	-3068
▁dchar	-3069
▁bul	-3070
▁indiqu	-3071
▁cre	-3072
▁corresp	-3073
clusion	-3074
lations	-3075
▁rapporteurs	-3076
▁pie	-3077
lch	-3078
▁finalement	-3079
▁parfaitement	-3080
rire	-3081
ttes	-3082
gmentation	-3083
be	-3084
▁pourront	-3085
▁proposer	-3086
▁obligations	-3087
▁ul	-3088
tils	-3089
vestissement	-3090
▁mdica	-3091
▁soins	-3092
loitation	-3093
▁conscience	-3094
▁proven	-3095
▁rgionale	-3096
▁final	-3097
▁discut	-3098
frique	-3099
tionnelles	-3100
▁vhicu	-3101
▁session	-3102
▁mondialisation	-3103
▁avenir	-3104
▁russ	-3105
▁faits	-3106
▁tribun	-3107
▁modification	-3108
▁provo	-3109
▁implique	-3110
▁ralisation	-3111
▁lamlioration	-3112
▁distin	-3113
▁impossi	-3114
▁individu	-3115
▁recours	-3116
▁emploi	-3117
▁lou	-3118
nal	-3119
▁all	-3120
▁critique	-3121
▁reje	-3122
gagement	-3123
▁fera	-3124
▁internationaux	-3125
▁laff	-3126
rt	-3127
▁charte	-3128
▁disposer	-3129
▁humaine	-3130
ms	-3131
terna	-3132
▁deff	-3133
▁mcanisme	-3134
▁super	-3135
▁cohrent	-3136
▁chy	-3137
▁avaient	-3138
ycle	-3139
ccep	-3140
▁effectu	-3141
▁diver	-3142
nire	-3143
▁prsents	-3144
▁recommandations	-3145
onner	-3146
▁aspect	-3147
▁application	-3148
▁quanti	-3149
▁rflex	-3150
▁ptro	-3151
qute	-3152
▁appropri	-3153
ccu	-3154
orti	-3155
erait	-3156
▁lintroduction	-3157
▁ppe	-3158
tembre	-3159
cro	-3160
▁raisonn	-3161
▁slo	-3162
▁estime	-3163
▁cop	-3164
▁prvu	-3165
▁dfinir	-3166
ource	-3167
▁inquitu	-3168
▁septembre	-3169
▁souhaitons	-3170
▁quota	-3171
▁red	-3172
▁monnaie	-3173
▁syn	-3174
▁valuation	-3175
▁suivant	-3176
▁norm	-3177
▁presque	-3178
nel	-3179
mag	-3180
tan	-3181
▁linnovation	-3182
▁gouvern	-3183
▁bnficier	-3184
▁colog	-3185
▁refl	-3186
▁mthode	-3187
▁populations	-3188
ck	-3189
pace	-3190
▁dmar	-3191
▁mises	-3192
▁substances	-3193
▁anci	-3194
▁lit	-3195
prise	-3196
▁mrite	-3197
bilisation	-3198
▁drou	-3199
▁avantages	-3200
▁voqu	-3201
▁oe	-3202
usion	-3203
▁rflch	-3204
▁daujourdhui	-3205
▁vri	-3206
▁parlons	-3207
▁article	-3208
▁devront	-3209
denti	-3210
formations	-3211
ctr	-3212
▁dapplication	-3213
▁ngociation	-3214
▁roumanie	-3215
id	-3216
itoy	-3217
▁ceuxci	-3218
▁discours	-3219
▁avions	-3220
rotre	-3221
▁protocole	-3222
cepti	-3223
lable	-3224
one	-3225
▁reprises	-3226
rastructures	-3227
▁demandes	-3228
▁lgislatif	-3229
▁populaire	-3230
ague	-3231
rablement	-3232
ka	-3233
▁maintien	-3234
▁supplmentaire	-3235
▁dcider	-3236
▁dra	-3237
viron	-3238
dopter	-3239
▁concerns	-3240
▁soir	-3241
▁mcanismes	-3242
▁influ	-3243
▁lest	-3244
umer	-3245
▁demandons	-3246
▁centre	-3247
▁dla	-3248
▁seraient	-3249
▁reprsentent	-3250
bur	-3251
vembre	-3252
▁caractr	-3253
▁atteint	-3254
▁durgence	-3255
▁chances	-3256
▁sources	-3257
▁considrable	-3258
▁profon	-3259
ote	-3260
▁matin	-3261
istoire	-3262
▁novembre	-3263
▁verts	-3264
▁globale	-3265
▁milliers	-3266
▁essentielle	-3267
hn	-3268
▁retour	-3269
▁principal	-3270
▁soutenu	-3271
▁faudrait	-3272
▁impossible	-3273
mique	-3274
▁ide	-3275
▁lle	-3276
▁lopinion	-3277
▁encourage	-3278
▁court	-3279
▁plnire	-3280
▁route	-3281
▁total	-3282
▁stratgique	-3283
go	-3284
▁examin	-3285
▁mdicaments	-3286
blir	-3287
alie	-3288
▁spcial	-3289
xes	-3290
sidi	-3291
▁etc	-3292
▁futur	-3293
▁auxquels	-3294
▁lvolution	-3295
▁dl	-3296
am	-3297
kraine	-3298
pit	-3299
▁vais	-3300
lie	-3301
▁modifier	-3302
aucra	-3303
▁coord	-3304
▁rcla	-3305
▁occident	-3306
▁dcharge	-3307
▁fal	-3308
▁prts	-3309
▁thme	-3310
▁habit	-3311
▁distrib	-3312
bas	-3313
▁principalement	-3314
gouver	-3315
primer	-3316
▁minorits	-3317
▁communauts	-3318
▁auprs	-3319
▁troisimement	-3320
▁famille	-3321
▁mots	-3322
▁marchand	-3323
▁dimport	-3324
fe	-3325
andica	-3326
▁mouve	-3327
gouvernement	-3328
▁appliqu	-3329
▁bureaucra	-3330
▁entirement	-3331
▁leve	-3332
▁aborder	-3333
▁norme	-3334
▁concrtes	-3335
▁parta	-3336
▁correspond	-3337
▁consommateur	-3338
rup	-3339
▁dinformations	-3340
▁opration	-3341
▁exclu	-3342
▁confronts	-3343
▁flexibilit	-3344
▁handica	-3345
▁bou	-3346
▁rural	-3347
▁votes	-3348
▁parlements	-3349
▁statis	-3350
▁subsidi	-3351
ster	-3352
▁fondamentales	-3353
▁potentiel	-3354
▁dviter	-3355
▁dipl	-3356
▁remarques	-3357
chement	-3358
▁maladies	-3359
▁lagence	-3360
lan	-3361
osent	-3362
▁probablement	-3363
udes	-3364
ccupe	-3365
▁presse	-3366
obre	-3367
▁dpart	-3368
▁gouvernance	-3369
▁relle	-3370
illet	-3371
▁lour	-3372
▁euros	-3373
▁acteurs	-3374
▁lhistoire	-3375
▁ber	-3376
▁locales	-3377
▁reprsentant	-3378
▁juge	-3379
▁faites	-3380
mar	-3381
▁souver	-3382
▁concitoy	-3383
▁montant	-3384
▁consoli	-3385
▁plans	-3386
▁dadhsion	-3387
incu	-3388
▁champ	-3389
trich	-3390
▁fab	-3391
▁contient	-3392
amen	-3393
▁dlai	-3394
▁faibles	-3395
uels	-3396
▁applic	-3397
▁examiner	-3398
od	-3399
tiles	-3400
▁rserve	-3401
▁courage	-3402
▁demploi	-3403
▁recons	-3404
▁temp	-3405
▁lespace	-3406
▁changer	-3407
▁prochaines	-3408
▁phase	-3409
▁petits	-3410
▁concitoyens	-3411
▁multi	-3412
▁franais	-3413
▁accr	-3414
▁x	-3415
▁annon	-3416
▁rglements	-3417
▁explic	-3418
▁dadopter	-3419
▁rdi	-3420
▁retard	-3421
rants	-3422
▁paci	-3423
ogne	-3424
▁lumire	-3425
▁ntait	-3426
▁sinc	-3427
▁vite	-3428
tisation	-3429
▁critiques	-3430
▁diversit	-3431
▁scientifiques	-3432
▁recommandation	-3433
mor	-3434
sivement	-3435
▁commerciales	-3436
▁formes	-3437
arde	-3438
▁abou	-3439
▁climat	-3440
ye	-3441
▁catgor	-3442
▁tenta	-3443
▁convaincu	-3444
cre	-3445
▁judiciaire	-3446
▁alterna	-3447
arder	-3448
▁remarque	-3449
▁faible	-3450
▁logique	-3451
▁mig	-3452
▁rfrend	-3453
▁appliquer	-3454
▁servir	-3455
▁changes	-3456
▁consultation	-3457
ociation	-3458
nom	-3459
▁riches	-3460
▁suivante	-3461
tablissement	-3462
▁oublier	-3463
▁situations	-3464
rti	-3465
▁argu	-3466
▁mthodes	-3467
▁accorde	-3468
▁dinf	-3469
▁considrer	-3470
bation	-3471
rance	-3472
sterdam	-3473
▁rappro	-3474
▁limiter	-3475
▁efficacement	-3476
▁criminalit	-3477
▁accompli	-3478
▁femme	-3479
▁seuls	-3480
▁vhicules	-3481
▁sujets	-3482
▁continent	-3483
▁orientations	-3484
aisse	-3485
▁structures	-3486
yp	-3487
▁lois	-3488
ates	-3489
▁concept	-3490
▁quotas	-3491
▁subsidiarit	-3492
▁leau	-3493
ologie	-3494
▁dcou	-3495
▁moimme	-3496
▁laccent	-3497
▁voisins	-3498
▁vas	-3499
▁rfrendum	-3500
▁tudi	-3501
gi	-3502
▁concentrer	-3503
▁ign	-3504
▁extra	-3505
▁appara	-3506
ralement	-3507
▁conver	-3508
▁llaboration	-3509
▁disposons	-3510
▁soutient	-3511
▁garanties	-3512
▁dintrt	-3513
atement	-3514
▁quin	-3515
▁dassurer	-3516
▁lectr	-3517
▁quitable	-3518
▁inu	-3519
▁cod	-3520
▁engag	-3521
ruption	-3522
▁luimme	-3523
▁accorder	-3524
▁contraign	-3525
tentes	-3526
▁pertin	-3527
▁structure	-3528
rain	-3529
chs	-3530
▁phnom	-3531
▁volu	-3532
▁ellemme	-3533
▁limpact	-3534
▁deme	-3535
ignement	-3536
▁penser	-3537
oise	-3538
▁montr	-3539
▁complment	-3540
quilibre	-3541
▁intrieures	-3542
▁nuclaires	-3543
ombe	-3544
▁stade	-3545
▁extrieure	-3546
▁tient	-3547
▁initi	-3548
▁conjoin	-3549
▁vision	-3550
ki	-3551
engen	-3552
▁revenir	-3553
▁clari	-3554
lions	-3555
▁envoy	-3556
▁tablir	-3557
▁ides	-3558
▁scientifique	-3559
▁lapproche	-3560
▁schengen	-3561
▁voire	-3562
▁combien	-3563
visionnement	-3564
▁rpond	-3565
▁insuff	-3566
▁vice	-3567
crip	-3568
▁passagers	-3569
▁attirer	-3570
▁navires	-3571
▁avr	-3572
▁subs	-3573
▁atten	-3574
▁mobilit	-3575
▁faite	-3576
▁police	-3577
▁modifi	-3578
▁bat	-3579
▁laugmentation	-3580
▁fru	-3581
▁balk	-3582
▁oeuvre	-3583
▁satisfa	-3584
▁num	-3585
mploy	-3586
anim	-3587
▁faciliter	-3588
▁terroristes	-3589
liers	-3590
▁calend	-3591
venue	-3592
▁ii	-3593
▁dimm	-3594
▁regre	-3595
renti	-3596
▁export	-3597
do	-3598
rovi	-3599
▁reconna	-3600
▁table	-3601
▁maritime	-3602
▁personnellement	-3603
▁totale	-3604
▁citoyen	-3605
▁ajouter	-3606
▁extrieures	-3607
▁chiffres	-3608
▁vert	-3609
▁bulga	-3610
animit	-3611
▁danger	-3612
▁justement	-3613
▁laisse	-3614
▁cesse	-3615
▁agences	-3616
▁van	-3617
tables	-3618
▁relatifs	-3619
▁prot	-3620
▁fraude	-3621
vrer	-3622
br	-3623
▁chefs	-3624
ns	-3625
▁occup	-3626
▁renouvelables	-3627
are	-3628
▁tape	-3629
▁prparation	-3630
▁proprit	-3631
▁envisage	-3632
cieux	-3633
fique	-3634
▁circonstances	-3635
▁fins	-3636
titution	-3637
▁prcdent	-3638
▁joue	-3639
▁lectron	-3640
▁relever	-3641
chant	-3642
landaise	-3643
▁conduite	-3644
▁rponses	-3645
▁dpla	-3646
▁lengagement	-3647
▁isral	-3648
▁fabri	-3649
▁essentiels	-3650
▁offre	-3651
fis	-3652
▁lanc	-3653
▁manifes	-3654
▁infrastructures	-3655
▁bilat	-3656
onom	-3657
▁sils	-3658
▁campagne	-3659
▁sor	-3660
▁suscepti	-3661
▁commerciaux	-3662
▁vidence	-3663
loir	-3664
▁rappelle	-3665
int	-3666
▁analyse	-3667
▁lvaluation	-3668
prsid	-3669
▁profiter	-3670
▁concernes	-3671
▁vritablement	-3672
▁moindre	-3673
▁disponibles	-3674
▁appar	-3675
▁modifications	-3676
▁rgional	-3677
▁compens	-3678
▁attitude	-3679
▁produire	-3680
▁autrement	-3681
▁secr	-3682
▁pourrions	-3683
▁historique	-3684
▁rgle	-3685
▁insister	-3686
▁portugal	-3687
ception	-3688
▁immdiatement	-3689
andis	-3690
▁obtenu	-3691
▁estimons	-3692
▁favoriser	-3693
▁lus	-3694
▁militaires	-3695
▁source	-3696
▁pied	-3697
▁empcher	-3698
▁spa	-3699
auche	-3700
▁future	-3701
gra	-3702
▁technologie	-3703
▁lautorit	-3704
ids	-3705
▁haute	-3706
▁pronon	-3707
▁balkans	-3708
▁global	-3709
▁ue	-3710
crit	-3711
▁daff	-3712
▁positions	-3713
▁ferrovi	-3714
▁fil	-3715
▁quels	-3716
▁dirigeants	-3717
▁tandis	-3718
▁lgislative	-3719
eraient	-3720
▁rac	-3721
▁attendre	-3722
qui	-3723
▁petit	-3724
issante	-3725
▁contrler	-3726
▁note	-3727
▁devait	-3728
▁louverture	-3729
▁insta	-3730
▁premires	-3731
▁juillet	-3732
▁breve	-3733
tines	-3734
▁langues	-3735
▁tes	-3736
ministration	-3737
▁matri	-3738
▁diverses	-3739
▁voisin	-3740
▁regrette	-3741
▁apporte	-3742
iner	-3743
▁lor	-3744
▁sins	-3745
▁progresser	-3746
▁commenc	-3747
▁sentiment	-3748
▁mex	-3749
▁violations	-3750
▁commissaires	-3751
▁terrain	-3752
▁finances	-3753
▁relation	-3754
▁puissions	-3755
▁dlais	-3756
▁pous	-3757
▁diffrences	-3758
itil	-3759
▁frapp	-3760
▁sagissant	-3761
▁prj	-3762
▁test	-3763
▁dobtenir	-3764
pi	-3765
▁aurons	-3766
▁viceprsid	-3767
▁catastrophe	-3768
▁utiliss	-3769
andes	-3770
▁soutenons	-3771
issances	-3772
▁auront	-3773
▁statistiques	-3774
▁raction	-3775
▁subventions	-3776
▁compagnies	-3777
▁lchelle	-3778
▁devrons	-3779
▁plur	-3780
ompa	-3781
▁eaux	-3782
▁ordre	-3783
riques	-3784
pendance	-3785
▁octobre	-3786
gouvernementale	-3787
▁dyna	-3788
▁avancer	-3789
▁pologne	-3790
▁repro	-3791
▁fiscale	-3792
▁ambitieux	-3793
▁dtri	-3794
▁souv	-3795
tiliser	-3796
gs	-3797
ber	-3798
▁lagenda	-3799
▁jeu	-3800
▁autom	-3801
▁terre	-3802
▁sauve	-3803
▁arti	-3804
▁porter	-3805
sible	-3806
▁pt	-3807
hors	-3808
▁institution	-3809
▁irak	-3810
▁dterminer	-3811
bourg	-3812
▁dautant	-3813
▁professionnelle	-3814
▁cellesci	-3815
▁comprhen	-3816
▁revenus	-3817
dro	-3818
▁flicit	-3819
▁ouverte	-3820
▁marchandises	-3821
▁familles	-3822
▁rsid	-3823
laires	-3824
laborer	-3825
▁rflexion	-3826
▁conciliation	-3827
▁portant	-3828
▁banques	-3829
lige	-3830
▁interpr	-3831
▁bases	-3832
▁sude	-3833
▁lux	-3834
opp	-3835
▁fondamentale	-3836
cidents	-3837
▁exactement	-3838
prience	-3839
▁maladie	-3840
▁vertu	-3841
▁essentiellement	-3842
▁chemin	-3843
▁correctement	-3844
▁poids	-3845
▁dorgan	-3846
▁calendrier	-3847
fa	-3848
▁dmis	-3849
▁socialiste	-3850
▁mrit	-3851
▁emb	-3852
▁pati	-3853
▁nexiste	-3854
▁tmoi	-3855
▁rparti	-3856
▁enreg	-3857
▁lintrieur	-3858
naire	-3859
mn	-3860
vateurs	-3861
▁satisfais	-3862
enh	-3863
▁accept	-3864
▁suffit	-3865
▁ctait	-3866
▁proche	-3867
oure	-3868
▁multip	-3869
roso	-3870
▁tol	-3871
▁constituer	-3872
▁raliss	-3873
ghan	-3874
▁fasse	-3875
▁adoptes	-3876
▁lancer	-3877
▁complte	-3878
▁langue	-3879
▁meilleures	-3880
tidi	-3881
▁luxe	-3882
▁lic	-3883
imes	-3884
▁acp	-3885
▁el	-3886
▁identi	-3887
▁journal	-3888
mit	-3889
▁environ	-3890
▁bri	-3891
▁dpos	-3892
ssurer	-3893
▁lonu	-3894
▁russite	-3895
▁dargent	-3896
▁perd	-3897
▁matires	-3898
▁propor	-3899
▁dtablir	-3900
▁mdiateur	-3901
▁lexercice	-3902
▁dav	-3903
▁trouvent	-3904
▁excessi	-3905
armonisation	-3906
▁interventions	-3907
▁irlandais	-3908
▁quotidi	-3909
ligation	-3910
▁bulgarie	-3911
esse	-3912
▁parvenus	-3913
ographique	-3914
▁transit	-3915
istiques	-3916
▁lecto	-3917
▁viande	-3918
▁impact	-3919
▁facile	-3920
▁financer	-3921
▁amricains	-3922
▁dign	-3923
▁obstacles	-3924
▁dtermin	-3925
▁organisation	-3926
▁barroso	-3927
▁lirlande	-3928
▁commercial	-3929
tifie	-3930
▁euxmmes	-3931
ciles	-3932
▁entier	-3933
▁lafrique	-3934
▁reprise	-3935
tate	-3936
▁linf	-3937
issait	-3938
versit	-3939
▁bureau	-3940
▁dai	-3941
▁rserves	-3942
▁fortement	-3943
▁massi	-3944
▁tort	-3945
▁prserver	-3946
▁fermement	-3947
▁entreprise	-3948
▁respecte	-3949
endrons	-3950
▁lavons	-3951
▁destins	-3952
▁nul	-3953
▁augmenter	-3954
▁prparer	-3955
▁seng	-3956
▁daprs	-3957
▁restent	-3958
ore	-3959
▁rendu	-3960
▁positifs	-3961
▁soum	-3962
▁crdibilit	-3963
▁pollution	-3964
ination	-3965
▁difficiles	-3966
▁frais	-3967
▁constate	-3968
▁comprends	-3969
▁sat	-3970
▁profonde	-3971
▁incit	-3972
▁arrive	-3973
▁actuelles	-3974
urent	-3975
▁combattre	-3976
▁second	-3977
gation	-3978
▁supri	-3979
▁tude	-3980
▁sort	-3981
▁viens	-3982
▁ache	-3983
▁ajoute	-3984
▁multil	-3985
▁commissions	-3986
▁tt	-3987
▁mauvaise	-3988
poque	-3989
▁cont	-3990
▁lpoque	-3991
▁transi	-3992
▁dsa	-3993
▁ving	-3994
▁tabac	-3995
▁lexistence	-3996
ition	-3997
▁stim	-3998
cus	-3999
▁bientre	-4000
▁iss	-4001
▁annuel	-4002
▁avance	-4003
ologique	-4004
rali	-4005
▁lobligation	-4006
sbourg	-4007
▁accrue	-4008
▁attendons	-4009
▁dagir	-4010
▁privil	-4011
▁lalle	-4012
▁affirm	-4013
▁connat	-4014
▁instal	-4015
▁lav	-4016
▁fonctionne	-4017
▁commentaires	-4018
iez	-4019
aminer	-4020
▁damsterdam	-4021
▁considrables	-4022
cision	-4023
▁code	-4024
▁mm	-4025
▁complexe	-4026
▁principales	-4027
▁levs	-4028
lage	-4029
▁sicle	-4030
▁dehors	-4031
▁cohrence	-4032
gue	-4033
▁possibles	-4034
▁flo	-4035
▁remarqu	-4036
ile	-4037
▁arriver	-4038
▁moyenorient	-4039
▁famili	-4040
▁lettre	-4041
▁catastrophes	-4042
▁objet	-4043
▁rflchir	-4044
▁rsolutions	-4045
▁double	-4046
▁serb	-4047
▁chypre	-4048
▁raisonnable	-4049
▁ouvert	-4050
▁lorigine	-4051
▁payer	-4052
▁modern	-4053
▁urgent	-4054
▁israli	-4055
ctue	-4056
▁lukraine	-4057
anche	-4058
▁sugg	-4059
▁vaste	-4060
▁signaler	-4061
▁souhaitent	-4062
▁ltablissement	-4063
anes	-4064
▁pti	-4065
▁fonctionnaires	-4066
▁proposs	-4067
▁effort	-4068
▁actuels	-4069
▁revient	-4070
▁utilise	-4071
▁orig	-4072
ctro	-4073
▁jappr	-4074
▁espace	-4075
▁observ	-4076
▁davis	-4077
▁consul	-4078
▁proccupation	-4079
▁acte	-4080
▁assist	-4081
▁prcise	-4082
▁forts	-4083
▁compter	-4084
▁pouve	-4085
▁claires	-4086
▁suppression	-4087
forme	-4088
▁biens	-4089
▁simil	-4090
▁permettent	-4091
▁capable	-4092
▁entendre	-4093
▁utilisation	-4094
▁violation	-4095
▁datte	-4096
▁auxquelles	-4097
rtiens	-4098
▁connu	-4099
enhague	-4100
▁prsidents	-4101
▁dess	-4102
▁dfend	-4103
▁paiement	-4104
▁luxemb	-4105
ains	-4106
▁rgionales	-4107
▁commerciale	-4108
▁volution	-4109
▁supprimer	-4110
▁vouloir	-4111
▁corruption	-4112
▁copenhague	-4113
▁octro	-4114
▁lunanimit	-4115
▁lgislatives	-4116
ctuelle	-4117
▁oprations	-4118
emple	-4119
▁transition	-4120
ctrices	-4121
kistan	-4122
▁prsentes	-4123
▁tablis	-4124
▁arien	-4125
▁seconde	-4126
▁lallemagne	-4127
▁partout	-4128
▁mobil	-4129
▁somme	-4130
▁via	-4131
▁employ	-4132
ouvre	-4133
dation	-4134
▁africa	-4135
▁culturelle	-4136
▁allemand	-4137
▁interne	-4138
▁quatri	-4139
▁amli	-4140
▁labor	-4141
▁garder	-4142
▁gor	-4143
▁dfa	-4144
▁ressorti	-4145
▁lotan	-4146
▁poursuite	-4147
ieu	-4148
▁linternet	-4149
▁souveraine	-4150
dm	-4151
▁moiti	-4152
pon	-4153
▁profond	-4154
▁visite	-4155
▁codcision	-4156
▁vaut	-4157
▁connais	-4158
▁scand	-4159
▁erreur	-4160
▁garde	-4161
istique	-4162
▁strasbourg	-4163
▁dist	-4164
▁terminer	-4165
▁organise	-4166
▁front	-4167
▁pcheurs	-4168
▁tudes	-4169
▁ptrole	-4170
▁investi	-4171
▁dutiliser	-4172
▁tendance	-4173
uler	-4174
▁jin	-4175
tiquetage	-4176
▁capacits	-4177
uss	-4178
▁relve	-4179
▁ratification	-4180
comm	-4181
▁lac	-4182
▁exploit	-4183
▁bo	-4184
tiers	-4185
mission	-4186
▁ing	-4187
ification	-4188
▁considrablement	-4189
▁chim	-4190
▁imposer	-4191
▁vul	-4192
▁pacifique	-4193
▁srieusement	-4194
▁pnal	-4195
▁vivre	-4196
▁minimum	-4197
▁blo	-4198
▁chin	-4199
▁dinvestissement	-4200
▁fixer	-4201
▁adquate	-4202
▁lien	-4203
▁vivent	-4204
asse	-4205
▁dbattre	-4206
▁fournit	-4207
▁rper	-4208
▁communs	-4209
▁rglementations	-4210
▁nour	-4211
▁blanc	-4212
▁causes	-4213
▁hausse	-4214
ade	-4215
ex	-4216
olue	-4217
▁aliments	-4218
▁datteindre	-4219
▁exprience	-4220
rateur	-4221
mins	-4222
▁grec	-4223
cilement	-4224
▁recevoir	-4225
▁amlioration	-4226
utes	-4227
▁diploma	-4228
orable	-4229
▁minorit	-4230
▁insist	-4231
las	-4232
▁plais	-4233
▁patri	-4234
▁voulu	-4235
▁estil	-4236
▁concernent	-4237
▁lexprience	-4238
▁lanci	-4239
▁facteurs	-4240
▁intgr	-4241
▁crucial	-4242
▁connatre	-4243
▁fdra	-4244
▁runions	-4245
▁activit	-4246
change	-4247
▁offrir	-4248
▁cinqu	-4249
▁paysbas	-4250
▁prud	-4251
▁attrib	-4252
isations	-4253
tionnels	-4254
▁destines	-4255
▁pac	-4256
▁oppos	-4257
▁mditerrane	-4258
▁intgre	-4259
▁invite	-4260
bit	-4261
▁diffrence	-4262
▁paralllement	-4263
▁chapit	-4264
▁centrales	-4265
▁acceptable	-4266
▁ang	-4267
▁parat	-4268
▁publicit	-4269
▁satisfait	-4270
▁favorables	-4271
▁dassociation	-4272
▁tenter	-4273
▁serons	-4274
▁ferme	-4275
▁avril	-4276
▁lopposition	-4277
▁dignit	-4278
▁phnomne	-4279
dic	-4280
▁soyons	-4281
▁paiements	-4282
larus	-4283
▁proc	-4284
▁touche	-4285
▁priv	-4286
▁clause	-4287
▁dangereux	-4288
▁excell	-4289
▁transfert	-4290
▁pse	-4291
▁immig	-4292
▁vingt	-4293
tension	-4294
pect	-4295
▁active	-4296
▁esprit	-4297
▁naturelles	-4298
▁limpression	-4299
▁prciser	-4300
▁administratives	-4301
side	-4302
conque	-4303
▁universe	-4304
▁vuln	-4305
▁conscients	-4306
ghanistan	-4307
mont	-4308
▁capables	-4309
odi	-4310
▁cherche	-4311
▁prolon	-4312
he	-4313
▁textes	-4314
▁substanti	-4315
▁analys	-4316
▁injus	-4317
▁relativement	-4318
▁petite	-4319
▁puisqu	-4320
▁seff	-4321
▁cub	-4322
▁approprie	-4323
▁ethn	-4324
▁majeure	-4325
▁dpit	-4326
▁prodi	-4327
▁compltement	-4328
ulation	-4329
lantique	-4330
▁information	-4331
▁crimes	-4332
▁linde	-4333
liance	-4334
▁pilier	-4335
▁britanniques	-4336
▁proposes	-4337
ruct	-4338
▁nait	-4339
▁restruct	-4340
bler	-4341
▁prive	-4342
▁sauveg	-4343
▁gnrales	-4344
▁origin	-4345
mages	-4346
▁permettrait	-4347
▁intervenir	-4348
▁prvue	-4349
cta	-4350
▁irlande	-4351
▁revt	-4352
▁industrielle	-4353
▁lc	-4354
▁inquitudes	-4355
ume	-4356
▁cos	-4357
▁dpass	-4358
▁organes	-4359
▁travaill	-4360
▁ressortiss	-4361
tront	-4362
▁plein	-4363
vrier	-4364
tar	-4365
uellement	-4366
▁autour	-4367
dis	-4368
▁pouvait	-4369
▁approfond	-4370
▁irr	-4371
▁rgimes	-4372
▁territori	-4373
▁taxe	-4374
▁dtermination	-4375
▁restrictions	-4376
▁dtail	-4377
▁rpter	-4378
▁linterdiction	-4379
▁lexamen	-4380
▁ong	-4381
▁prvenir	-4382
▁crises	-4383
▁fermet	-4384
▁pure	-4385
▁prjudi	-4386
cription	-4387
▁patients	-4388
▁suscit	-4389
▁orateurs	-4390
mpleur	-4391
▁fvrier	-4392
ortation	-4393
gos	-4394
pro	-4395
dier	-4396
uf	-4397
▁villes	-4398
▁principale	-4399
▁reconstruction	-4400
▁entra	-4401
▁amlior	-4402
cune	-4403
rage	-4404
nelle	-4405
▁insuffis	-4406
qus	-4407
▁ky	-4408
▁perdre	-4409
▁mauvais	-4410
▁sport	-4411
▁ge	-4412
▁orientale	-4413
▁napp	-4414
▁apparti	-4415
▁discrimin	-4416
▁feu	-4417
viennent	-4418
▁nette	-4419
▁ladministration	-4420
▁lt	-4421
▁trag	-4422
▁homme	-4423
urance	-4424
▁tchque	-4425
▁systmatique	-4426
▁cohrente	-4427
▁premiers	-4428
▁condamn	-4429
▁bti	-4430
▁convergence	-4431
▁adhsion	-4432
▁plaisir	-4433
uelles	-4434
▁perdu	-4435
▁croire	-4436
▁rent	-4437
▁slova	-4438
▁socialistes	-4439
▁auraient	-4440
▁envisager	-4441
lve	-4442
former	-4443
▁dtails	-4444
▁hors	-4445
ic	-4446
▁phy	-4447
▁roms	-4448
▁appu	-4449
institu	-4450
▁tempora	-4451
▁multilat	-4452
▁lexcel	-4453
▁directrices	-4454
▁soumettre	-4455
▁aid	-4456
▁couver	-4457
▁syndic	-4458
mdi	-4459
▁rpartition	-4460
▁lindpendance	-4461
uropens	-4462
▁capitaux	-4463
▁sacc	-4464
vage	-4465
▁rempl	-4466
▁mouvement	-4467
▁humain	-4468
▁recour	-4469
▁amricain	-4470
▁aband	-4471
▁formuler	-4472
atie	-4473
▁futures	-4474
▁menaces	-4475
▁programmecadre	-4476
▁existantes	-4477
▁facteur	-4478
▁voisinage	-4479
▁accl	-4480
tiquement	-4481
ccepter	-4482
▁tches	-4483
ordinaire	-4484
▁rpte	-4485
▁amliorations	-4486
▁comprend	-4487
▁prte	-4488
itude	-4489
▁meilleurs	-4490
▁mentionner	-4491
▁importations	-4492
▁formule	-4493
bres	-4494
▁gro	-4495
▁montrent	-4496
estation	-4497
▁remarquer	-4498
▁construire	-4499
▁explo	-4500
▁simplification	-4501
▁nimp	-4502
▁dficit	-4503
▁symb	-4504
inions	-4505
▁exemples	-4506
▁dtru	-4507
▁existent	-4508
▁obligatoire	-4509
▁constitutionnel	-4510
▁bientt	-4511
▁revanche	-4512
▁interinstitu	-4513
▁motion	-4514
▁justifi	-4515
▁figure	-4516
rets	-4517
▁quinze	-4518
▁ragir	-4519
▁majeur	-4520
▁susp	-4521
▁avanc	-4522
▁rejoin	-4523
▁prosprit	-4524
▁conten	-4525
jouter	-4526
▁contribue	-4527
▁prennent	-4528
▁viennent	-4529
▁franaise	-4530
we	-4531
▁navi	-4532
▁diffrente	-4533
▁palestiniens	-4534
▁lexploitation	-4535
▁dclare	-4536
▁inn	-4537
▁san	-4538
taient	-4539
▁japon	-4540
▁stocks	-4541
▁voyage	-4542
▁sti	-4543
tur	-4544
▁incon	-4545
▁gauche	-4546
▁applique	-4547
amer	-4548
fon	-4549
▁reconnu	-4550
▁lquilibre	-4551
vais	-4552
tellig	-4553
▁regrettable	-4554
▁ayons	-4555
dition	-4556
▁accepte	-4557
▁urb	-4558
▁termin	-4559
▁hy	-4560
▁grer	-4561
▁autorit	-4562
▁signe	-4563
▁tres	-4564
▁citer	-4565
ssent	-4566
▁dapporter	-4567
▁organismes	-4568
▁capitale	-4569
▁ressort	-4570
▁existants	-4571
▁ferroviaire	-4572
▁espagnol	-4573
▁continuent	-4574
gosla	-4575
ougosla	-4576
▁content	-4577
▁stratgies	-4578
▁dappro	-4579
rat	-4580
▁essentielles	-4581
▁efficacit	-4582
▁influence	-4583
▁iran	-4584
▁crime	-4585
▁litalie	-4586
▁dette	-4587
▁industrie	-4588
ctricit	-4589
▁nergie	-4590
▁tot	-4591
▁prpar	-4592
▁croatie	-4593
▁sincrement	-4594
▁avances	-4595
▁maximum	-4596
▁entrer	-4597
ologiques	-4598
▁chef	-4599
▁daccs	-4600
▁dcen	-4601
▁sept	-4602
▁menes	-4603
▁baisse	-4604
▁dentrepr	-4605
▁dintgration	-4606
▁culturel	-4607
aliser	-4608
▁aurions	-4609
atoires	-4610
endrait	-4611
▁transfrontal	-4612
▁bos	-4613
▁polon	-4614
▁reconnat	-4615
▁espoir	-4616
▁raff	-4617
▁largissement	-4618
▁types	-4619
▁pralable	-4620
▁mdic	-4621
gement	-4622
▁afrique	-4623
▁tentative	-4624
▁semblent	-4625
▁paroles	-4626
▁expliquer	-4627
▁considrons	-4628
▁sle	-4629
▁saur	-4630
▁laffaire	-4631
▁souverainet	-4632
▁cote	-4633
▁travaillent	-4634
crire	-4635
▁estce	-4636
▁apprci	-4637
▁exprime	-4638
▁mutuelle	-4639
▁approuve	-4640
▁satta	-4641
▁tari	-4642
▁rgler	-4643
▁charges	-4644
▁humaines	-4645
▁marque	-4646
▁compos	-4647
▁chale	-4648
alyse	-4649
▁considr	-4650
▁cultures	-4651
▁satisfaction	-4652
iger	-4653
trument	-4654
ice	-4655
▁crdit	-4656
▁sv	-4657
▁cycle	-4658
▁nergies	-4659
▁quipe	-4660
▁activement	-4661
▁nergtiques	-4662
ssant	-4663
dess	-4664
▁introduit	-4665
▁prvoir	-4666
▁regard	-4667
▁liran	-4668
▁cologique	-4669
▁mains	-4670
▁rpercus	-4671
▁conventions	-4672
▁sortir	-4673
▁bir	-4674
▁marge	-4675
▁chinois	-4676
▁opinion	-4677
▁renforc	-4678
▁quest	-4679
orisation	-4680
▁mene	-4681
▁mode	-4682
▁dgalit	-4683
mentation	-4684
▁lhon	-4685
▁sensible	-4686
▁arguments	-4687
▁ressortissants	-4688
▁visas	-4689
▁assumer	-4690
tic	-4691
▁marqu	-4692
▁ville	-4693
▁indpendant	-4694
▁gnralement	-4695
▁ports	-4696
▁forum	-4697
▁intressant	-4698
▁dle	-4699
ctroi	-4700
▁clairs	-4701
▁citoyenne	-4702
▁jusquici	-4703
oto	-4704
▁justifie	-4705
▁linstant	-4706
sif	-4707
▁vivement	-4708
ueill	-4709
▁obje	-4710
▁lirak	-4711
▁rduit	-4712
▁sassurer	-4713
para	-4714
▁lhonorable	-4715
ko	-4716
▁formules	-4717
▁locaux	-4718
▁bout	-4719
▁conserver	-4720
▁librechange	-4721
▁bus	-4722
tente	-4723
orer	-4724
▁dexpression	-4725
▁dpl	-4726
▁lespagne	-4727
▁accomplis	-4728
ba	-4729
▁dispar	-4730
▁dcide	-4731
▁cong	-4732
▁retraite	-4733
▁exportations	-4734
▁radic	-4735
▁informe	-4736
▁lexcution	-4737
▁rgu	-4738
▁dbou	-4739
▁denres	-4740
▁comportement	-4741
▁publi	-4742
▁tribunal	-4743
▁bons	-4744
onomie	-4745
▁incombe	-4746
gnent	-4747
▁pakistan	-4748
▁diminution	-4749
▁visent	-4750
▁technologique	-4751
▁cens	-4752
▁demp	-4753
▁dencour	-4754
▁moyenne	-4755
▁nl	-4756
▁saluer	-4757
▁prvues	-4758
▁accrotre	-4759
▁centaines	-4760
chi	-4761
▁banc	-4762
▁indpendants	-4763
▁bref	-4764
▁passage	-4765
mun	-4766
▁lecteurs	-4767
▁lharmonisation	-4768
▁douan	-4769
▁volontaire	-4770
▁rurales	-4771
▁ara	-4772
▁surmont	-4773
ath	-4774
▁incl	-4775
▁rcente	-4776
▁postes	-4777
▁soup	-4778
▁sugges	-4779
▁perte	-4780
▁partenaire	-4781
▁repose	-4782
tais	-4783
gmenter	-4784
▁linsta	-4785
▁primor	-4786
▁utilises	-4787
▁dmarche	-4788
▁primordi	-4789
▁terri	-4790
▁rpercussions	-4791
▁savre	-4792
▁solide	-4793
▁brivement	-4794
▁lintervention	-4795
▁conduit	-4796
▁arop	-4797
▁prsentation	-4798
dmocra	-4799
▁agence	-4800
▁monop	-4801
▁jeunesse	-4802
▁revi	-4803
▁dmission	-4804
▁disposent	-4805
▁taxes	-4806
ffre	-4807
obile	-4808
▁bnfices	-4809
▁tlvision	-4810
▁agit	-4811
cement	-4812
▁conforme	-4813
▁frontire	-4814
▁concrets	-4815
▁concrte	-4816
▁lactivit	-4817
uts	-4818
▁dposs	-4819
▁amliore	-4820
▁version	-4821
▁pratiquement	-4822
▁modes	-4823
▁sagissait	-4824
▁adopts	-4825
▁directe	-4826
entiel	-4827
▁derrire	-4828
▁tellement	-4829
▁dimmigration	-4830
▁faute	-4831
▁hui	-4832
tagne	-4833
▁provenant	-4834
▁ppede	-4835
▁pouvez	-4836
paravant	-4837
ouer	-4838
▁honn	-4839
troduire	-4840
▁approuver	-4841
▁fonctionner	-4842
▁travaille	-4843
▁connaissons	-4844
▁central	-4845
ulte	-4846
▁prcon	-4847
▁abus	-4848
▁tva	-4849
▁mettent	-4850
▁reven	-4851
▁habitants	-4852
▁provenance	-4853
▁meur	-4854
▁mol	-4855
▁contrairement	-4856
▁intention	-4857
▁lavez	-4858
▁degr	-4859
▁post	-4860
▁lectronique	-4861
▁experts	-4862
▁illgale	-4863
▁finance	-4864
▁reprendre	-4865
ssement	-4866
▁bloc	-4867
▁tte	-4868
▁introduire	-4869
▁destruction	-4870
▁constructive	-4871
ek	-4872
▁opinions	-4873
▁las	-4874
▁diss	-4875
▁dappr	-4876
▁gros	-4877
▁libraux	-4878
▁dol	-4879
▁core	-4880
▁serbie	-4881
▁essayer	-4882
▁dynamique	-4883
▁reflte	-4884
▁autrich	-4885
▁civiles	-4886
▁jaur	-4887
▁distribution	-4888
▁corri	-4889
▁prisonn	-4890
▁less	-4891
vid	-4892
▁viceprsident	-4893
▁connaissances	-4894
▁valu	-4895
▁informer	-4896
▁jo	-4897
▁mus	-4898
▁troitement	-4899
▁sopp	-4900
▁drogue	-4901
▁attentes	-4902
▁remettre	-4903
▁devient	-4904
▁contact	-4905
dresse	-4906
▁dexaminer	-4907
istr	-4908
▁imag	-4909
▁enqute	-4910
▁reprodu	-4911
▁persu	-4912
▁incont	-4913
▁taille	-4914
▁damende	-4915
▁criti	-4916
▁vendre	-4917
▁compati	-4918
▁perp	-4919
lone	-4920
▁choisir	-4921
▁rex	-4922
▁jeudi	-4923
▁scandale	-4924
▁pou	-4925
aliers	-4926
▁problmatique	-4927
▁rmun	-4928
▁vig	-4929
▁amis	-4930
▁aborde	-4931
▁lexemple	-4932
▁intellig	-4933
▁damendements	-4934
▁inquit	-4935
▁dappliquer	-4936
burants	-4937
▁suppose	-4938
▁confirmer	-4939
▁lenseignement	-4940
▁dvaluation	-4941
▁inclure	-4942
▁duquel	-4943
▁anciens	-4944
▁dict	-4945
tiennent	-4946
ilat	-4947
tici	-4948
▁liens	-4949
yth	-4950
quit	-4951
▁local	-4952
dessus	-4953
▁lent	-4954
▁fruits	-4955
▁mass	-4956
▁quantit	-4957
▁strictes	-4958
▁inca	-4959
▁tenue	-4960
▁avantage	-4961
▁lexclusion	-4962
▁illus	-4963
▁progress	-4964
▁contrats	-4965
▁dfinitive	-4966
lez	-4967
mark	-4968
▁direct	-4969
▁exercer	-4970
▁jinvite	-4971
▁privs	-4972
▁thmes	-4973
ia	-4974
▁pire	-4975
▁pleine	-4976
onsnous	-4977
▁tomb	-4978
▁surpr	-4979
yn	-4980
▁internes	-4981
▁prcdente	-4982
phriques	-4983
▁clandes	-4984
yez	-4985
▁we	-4986
ovine	-4987
▁salu	-4988
▁choisi	-4989
▁oprateurs	-4990
vec	-4991
▁catgorie	-4992
▁gorgie	-4993
▁pouvant	-4994
estations	-4995
▁allemagne	-4996
▁belarus	-4997
▁civils	-4998
▁cooprer	-4999
▁excu	-5000
▁totalit	-5001
▁ariennes	-5002
▁institutionnel	-5003
▁rgionaux	-5004
jout	-5005
▁rside	-5006
▁salaires	-5007
sique	-5008
▁excellente	-5009
▁susceptibles	-5010
▁revenu	-5011
▁religie	-5012
▁satisfaire	-5013
▁mn	-5014
▁impose	-5015
tt	-5016
▁quilibr	-5017
▁permettront	-5018
▁pap	-5019
▁indique	-5020
dec	-5021
toires	-5022
▁russe	-5023
▁concrtement	-5024
▁profondment	-5025
endront	-5026
▁dsire	-5027
▁clart	-5028
▁examen	-5029
▁quelqu	-5030
▁rapporteure	-5031
▁gal	-5032
▁disant	-5033
▁finlande	-5034
▁voitures	-5035
▁industries	-5036
▁chaleure	-5037
cycle	-5038
▁quavec	-5039
▁effor	-5040
▁laborer	-5041
▁prenons	-5042
▁ptitions	-5043
▁territoires	-5044
▁fixs	-5045
ratoire	-5046
▁dvelopp	-5047
▁har	-5048
▁articles	-5049
▁cig	-5050
▁grandebre	-5051
urde	-5052
▁bro	-5053
▁intentions	-5054
▁luxembourg	-5055
▁grandebretagne	-5056
mas	-5057
▁intelle	-5058
▁linstar	-5059
▁unit	-5060
▁centres	-5061
▁explicite	-5062
▁pib	-5063
▁ravi	-5064
▁chercher	-5065
▁flux	-5066
▁chapitre	-5067
▁impra	-5068
▁kyoto	-5069
iert	-5070
▁sar	-5071
▁lacquis	-5072
▁ncessite	-5073
▁dad	-5074
onneur	-5075
auff	-5076
▁amen	-5077
▁daider	-5078
▁trouvons	-5079
▁contribuera	-5080
▁om	-5081
tiser	-5082
▁difficult	-5083
▁sapplique	-5084
▁chimiques	-5085
▁daugmenter	-5086
agnes	-5087
▁vulnrables	-5088
▁plante	-5089
▁gui	-5090
▁remplacer	-5091
▁optim	-5092
▁transat	-5093
▁contacts	-5094
▁inde	-5095
▁lur	-5096
▁courant	-5097
▁retirer	-5098
▁dri	-5099
▁cofin	-5100
▁appare	-5101
▁conduire	-5102
▁urg	-5103
▁spar	-5104
▁prvoy	-5105
▁convenu	-5106
▁expliqu	-5107
▁lacun	-5108
▁sanit	-5109
▁rejeter	-5110
▁prononcer	-5111
▁nice	-5112
▁parvi	-5113
▁contribuables	-5114
dr	-5115
▁maro	-5116
▁carte	-5117
▁chiffre	-5118
▁internet	-5119
▁lindi	-5120
▁erreurs	-5121
▁huit	-5122
▁intgration	-5123
▁nglig	-5124
▁comprhension	-5125
▁voud	-5126
▁denf	-5127
▁preuves	-5128
▁rencontre	-5129
oriz	-5130
▁charg	-5131
micycle	-5132
▁structurelles	-5133
▁atil	-5134
▁dfaut	-5135
▁linstrument	-5136
▁acquis	-5137
▁dtriment	-5138
▁qualifie	-5139
▁pressions	-5140
▁fournisse	-5141
▁sem	-5142
▁accueil	-5143
▁lgislations	-5144
▁significative	-5145
iennes	-5146
▁conseils	-5147
▁exter	-5148
▁valuer	-5149
▁perform	-5150
▁exclusivement	-5151
▁crains	-5152
▁normal	-5153
▁prtend	-5154
▁vra	-5155
▁dtats	-5156
▁bosnie	-5157
▁relance	-5158
▁dclarer	-5159
▁bureaucratie	-5160
▁saisir	-5161
unit	-5162
▁quelquun	-5163
▁dinitiative	-5164
rg	-5165
▁dencourager	-5166
▁installations	-5167
▁vente	-5168
▁auparavant	-5169
▁interdiction	-5170
▁dval	-5171
▁usage	-5172
▁inutile	-5173
▁automobile	-5174
▁poste	-5175
▁souci	-5176
▁futurs	-5177
▁complet	-5178
▁permanent	-5179
rastructure	-5180
tenue	-5181
▁minutes	-5182
midi	-5183
▁dcus	-5184
▁lire	-5185
▁professionnels	-5186
▁dsas	-5187
▁bilan	-5188
▁respectent	-5189
▁can	-5190
▁gagner	-5191
▁carb	-5192
celone	-5193
▁suffisant	-5194
▁prisonniers	-5195
▁rgulirement	-5196
ress	-5197
▁soulev	-5198
▁vritables	-5199
▁sige	-5200
▁contributions	-5201
▁fixe	-5202
▁dsign	-5203
▁souhaiter	-5204
▁ngocier	-5205
▁barcelone	-5206
▁rdig	-5207
arition	-5208
▁reprsentation	-5209
ueillir	-5210
oub	-5211
▁demeure	-5212
▁attendent	-5213
esses	-5214
communi	-5215
▁positives	-5216
▁appropries	-5217
▁rpondu	-5218
▁motifs	-5219
▁compren	-5220
▁vrifier	-5221
▁baltique	-5222
▁sinon	-5223
▁journe	-5224
▁lacunes	-5225
▁venu	-5226
▁chant	-5227
visions	-5228
▁dirais	-5229
▁latine	-5230
▁int	-5231
▁sec	-5232
▁quaux	-5233
▁consenti	-5234
▁fu	-5235
cool	-5236
▁sre	-5237
▁doff	-5238
▁dites	-5239
▁darmes	-5240
▁patrimo	-5241
▁dintroduire	-5242
▁sang	-5243
▁confirm	-5244
lam	-5245
▁poque	-5246
▁surmonter	-5247
▁convaincre	-5248
▁visa	-5249
▁litu	-5250
tination	-5251
▁tlcommuni	-5252
lib	-5253
▁javais	-5254
▁suffisante	-5255
▁spe	-5256
▁pertes	-5257
▁raffir	-5258
▁dommages	-5259
user	-5260
▁discutons	-5261
▁racisme	-5262
▁bnficient	-5263
▁brut	-5264
▁mdec	-5265
▁unilat	-5266
▁continuera	-5267
▁apparat	-5268
▁obligation	-5269
▁seffor	-5270
▁sudois	-5271
▁accessi	-5272
▁assure	-5273
▁milieu	-5274
▁dispara	-5275
▁loctroi	-5276
▁handicapes	-5277
hou	-5278
▁conception	-5279
▁rapi	-5280
▁lchange	-5281
▁dbattons	-5282
▁encourag	-5283
▁appliques	-5284
▁environnemental	-5285
▁allemande	-5286
▁dmontre	-5287
▁lessentiel	-5288
▁prcdemment	-5289
▁ka	-5290
▁contro	-5291
▁mine	-5292
▁hauteur	-5293
▁annonc	-5294
▁tenant	-5295
▁pnale	-5296
▁lamb	-5297
▁const	-5298
▁impos	-5299
▁habitu	-5300
▁indica	-5301
▁nimporte	-5302
▁purement	-5303
▁mritent	-5304
▁cab	-5305
▁daccorder	-5306
▁jaurais	-5307
▁candidat	-5308
▁signature	-5309
aris	-5310
▁engags	-5311
▁lattitude	-5312
▁patrimoine	-5313
▁remerciements	-5314
▁mentionne	-5315
▁indpendante	-5316
▁manifestement	-5317
ueur	-5318
▁lgitime	-5319
▁macd	-5320
▁hongrie	-5321
▁revoir	-5322
▁commence	-5323
▁secrtaire	-5324
▁tox	-5325
▁lgitimit	-5326
▁facilement	-5327
▁prouv	-5328
▁cls	-5329
▁retire	-5330
▁jappelle	-5331
nant	-5332
▁restre	-5333
ratoires	-5334
▁amricaine	-5335
▁histoire	-5336
▁justifier	-5337
nit	-5338
aises	-5339
▁leves	-5340
▁conviction	-5341
cieuse	-5342
▁lingu	-5343
cession	-5344
▁considrant	-5345
▁ach	-5346
ssemb	-5347
▁remplir	-5348
▁ouv	-5349
▁belgique	-5350
▁licen	-5351
▁savent	-5352
▁consacr	-5353
▁urgence	-5354
▁fonctions	-5355
▁bce	-5356
▁notion	-5357
▁intgrer	-5358
▁sensibles	-5359
▁cana	-5360
▁diffr	-5361
▁argent	-5362
▁examine	-5363
▁affirmer	-5364
▁dinc	-5365
▁connaissent	-5366
▁stratgiques	-5367
▁libres	-5368
▁dmontr	-5369
▁modernisation	-5370
▁bate	-5371
▁dordre	-5372
▁dossiers	-5373
▁harmonisation	-5374
▁suivants	-5375
▁rsolu	-5376
▁carbone	-5377
oivent	-5378
▁assistance	-5379
▁coles	-5380
▁menac	-5381
▁lavant	-5382
▁formulation	-5383
urant	-5384
▁scne	-5385
istent	-5386
▁distinction	-5387
▁destine	-5388
▁daborder	-5389
▁observations	-5390
dus	-5391
sser	-5392
alisme	-5393
▁prsentent	-5394
▁accidents	-5395
▁interd	-5396
▁cinquime	-5397
▁enqu	-5398
▁intensi	-5399
▁prenne	-5400
▁initiale	-5401
▁intrieure	-5402
▁inh	-5403
▁gnration	-5404
tera	-5405
▁refuser	-5406
mdiaire	-5407
▁mettant	-5408
obil	-5409
▁confirme	-5410
▁proportion	-5411
bes	-5412
▁tib	-5413
▁fiscales	-5414
ni	-5415
ina	-5416
▁desp	-5417
▁tcht	-5418
▁voici	-5419
▁extraordinaire	-5420
▁existant	-5421
▁sit	-5422
▁rh	-5423
▁clarifier	-5424
▁lexcellent	-5425
▁tonnes	-5426
▁suivantes	-5427
▁appartient	-5428
▁dangereuses	-5429
kh	-5430
jourd	-5431
▁aujourd	-5432
▁enregistr	-5433
▁nettement	-5434
▁vites	-5435
▁demandent	-5436
▁substance	-5437
▁transa	-5438
▁rende	-5439
▁dpendance	-5440
▁recettes	-5441
▁honte	-5442
▁drogues	-5443
▁tenus	-5444
▁rassemb	-5445
▁prie	-5446
▁moderne	-5447
▁serre	-5448
voi	-5449
▁lexportation	-5450
▁administrative	-5451
▁vin	-5452
▁peur	-5453
▁sagisse	-5454
bor	-5455
▁mill	-5456
▁aprsmidi	-5457
▁desque	-5458
▁minute	-5459
▁possde	-5460
▁recourir	-5461
▁retrouver	-5462
▁applicables	-5463
▁sert	-5464
▁resta	-5465
▁sexuelle	-5466
▁bienvenue	-5467
▁linclusion	-5468
▁souhaitable	-5469
rents	-5470
▁cite	-5471
▁abouti	-5472
▁finale	-5473
▁espagnole	-5474
▁cout	-5475
▁russes	-5476
▁croissante	-5477
▁indire	-5478
▁retrait	-5479
▁parven	-5480
▁adresser	-5481
▁dveloppements	-5482
▁tests	-5483
ophob	-5484
▁inad	-5485
▁voyons	-5486
▁dducation	-5487
▁naturel	-5488
▁denfants	-5489
▁proccupe	-5490
▁lgale	-5491
▁atteinte	-5492
mann	-5493
▁tax	-5494
gm	-5495
▁outil	-5496
▁dtu	-5497
▁lance	-5498
▁esprer	-5499
▁damendement	-5500
▁cuba	-5501
▁lenf	-5502
▁slov	-5503
▁italie	-5504
▁bnficiaires	-5505
▁restructuration	-5506
▁infra	-5507
▁dsastre	-5508
▁alb	-5509
▁prochains	-5510
pule	-5511
▁parents	-5512
▁remarquable	-5513
▁affect	-5514
▁iden	-5515
▁rtabl	-5516
▁considrations	-5517
otes	-5518
▁hor	-5519
▁leons	-5520
▁ultra	-5521
▁disent	-5522
ssage	-5523
▁dane	-5524
▁lapprobation	-5525
▁remb	-5526
▁recev	-5527
▁calcul	-5528
▁devenu	-5529
▁religion	-5530
▁sl	-5531
▁chane	-5532
▁contradi	-5533
▁noub	-5534
▁report	-5535
▁temporaire	-5536
▁multination	-5537
▁tunis	-5538
▁simplifier	-5539
▁far	-5540
▁emplo	-5541
▁exprimes	-5542
▁pourcent	-5543
▁lextrieur	-5544
▁quasi	-5545
▁appels	-5546
▁danemark	-5547
▁polonais	-5548
app	-5549
pire	-5550
utiques	-5551
▁puisquil	-5552
tification	-5553
▁conven	-5554
▁voudrions	-5555
▁transe	-5556
▁affirme	-5557
▁inquitude	-5558
astrich	-5559
▁soumise	-5560
▁yougosla	-5561
▁recommande	-5562
sias	-5563
maire	-5564
▁voies	-5565
▁exiger	-5566
▁dlaborer	-5567
▁maastrich	-5568
tgrer	-5569
▁instamment	-5570
▁entrane	-5571
▁utiles	-5572
▁trangers	-5573
cule	-5574
▁lentreprise	-5575
▁prtexte	-5576
▁durabilit	-5577
▁maastricht	-5578
▁citoyennet	-5579
▁garantissant	-5580
oine	-5581
estre	-5582
▁ambi	-5583
▁corps	-5584
▁dobser	-5585
▁expriences	-5586
dapter	-5587
▁possd	-5588
▁pencher	-5589
▁repris	-5590
▁audi	-5591
▁pluri	-5592
▁infri	-5593
▁sret	-5594
▁arriv	-5595
▁dpasse	-5596
▁catgories	-5597
▁interven	-5598
▁lche	-5599
▁manqu	-5600
▁raliste	-5601
▁occidentaux	-5602
arma	-5603
▁automa	-5604
▁gali	-5605
▁particuliers	-5606
ronte	-5607
▁daccrotre	-5608
▁dentreprise	-5609
▁chaleureusement	-5610
▁climatiques	-5611
▁lait	-5612
lissement	-5613
▁espces	-5614
▁tente	-5615
▁dentreprises	-5616
▁pensions	-5617
▁remdier	-5618
▁pan	-5619
chons	-5620
▁devi	-5621
▁occupe	-5622
▁dvelopps	-5623
▁reconnais	-5624
nies	-5625
imb	-5626
▁convaincue	-5627
oni	-5628
▁engager	-5629
▁judiciaires	-5630
▁cts	-5631
▁pensent	-5632
dan	-5633
▁minimales	-5634
▁contribuent	-5635
▁suprieur	-5636
▁investir	-5637
▁sanction	-5638
▁linstauration	-5639
▁trou	-5640
▁fourni	-5641
▁etats	-5642
▁politiquement	-5643
ader	-5644
▁ngatif	-5645
istant	-5646
▁dcent	-5647
▁prven	-5648
▁indiquer	-5649
▁gure	-5650
▁seuil	-5651
▁rductions	-5652
housias	-5653
▁voulais	-5654
▁rcip	-5655
▁brevets	-5656
▁criminels	-5657
limentation	-5658
urrence	-5659
▁ouvrir	-5660
▁sent	-5661
▁larme	-5662
▁berlin	-5663
▁franch	-5664
▁librement	-5665
ographiques	-5666
ho	-5667
sses	-5668
▁permanente	-5669
▁dense	-5670
▁sengager	-5671
▁approfondie	-5672
▁rels	-5673
▁venons	-5674
▁rglementaire	-5675
tonie	-5676
▁jtais	-5677
▁didenti	-5678
▁actif	-5679
▁quatrime	-5680
▁irlandaise	-5681
▁absolue	-5682
lications	-5683
▁alternatives	-5684
vaient	-5685
▁accus	-5686
▁voquer	-5687
▁portent	-5688
▁moti	-5689
▁ambitie	-5690
▁aroports	-5691
▁cruciale	-5692
▁due	-5693
▁vir	-5694
▁prendra	-5695
▁quelconque	-5696
▁incap	-5697
▁radio	-5698
▁seules	-5699
▁dus	-5700
▁obstacle	-5701
▁lavi	-5702
▁unan	-5703
▁merc	-5704
▁macdoine	-5705
▁heureusement	-5706
nels	-5707
▁del	-5708
▁bord	-5709
▁partant	-5710
▁rcon	-5711
voque	-5712
▁tlph	-5713
▁gnrations	-5714
ctoire	-5715
▁prouve	-5716
▁dcisi	-5717
▁vital	-5718
▁promesses	-5719
▁explications	-5720
▁fallait	-5721
dt	-5722
▁territoriale	-5723
entement	-5724
▁tabl	-5725
▁lamrique	-5726
▁sjour	-5727
▁dbattu	-5728
ccurrence	-5729
▁consacre	-5730
▁campagnes	-5731
ataires	-5732
▁manifeste	-5733
▁liss	-5734
riche	-5735
▁gnre	-5736
▁indispensables	-5737
voyer	-5738
daptation	-5739
▁distor	-5740
▁consacrer	-5741
▁conservation	-5742
▁he	-5743
imbab	-5744
▁tions	-5745
▁protge	-5746
▁lespoir	-5747
▁heureuse	-5748
▁vacc	-5749
sil	-5750
▁affai	-5751
▁zimbab	-5752
▁sauvegarde	-5753
ell	-5754
lature	-5755
▁tendre	-5756
▁reconnaissant	-5757
▁dag	-5758
▁ratifi	-5759
▁simples	-5760
elon	-5761
▁dcennies	-5762
▁fre	-5763
▁printemps	-5764
▁dentendre	-5765
▁arme	-5766
▁millnaire	-5767
▁dimpact	-5768
▁similaires	-5769
▁navait	-5770
▁suggre	-5771
▁hlas	-5772
▁caractristiques	-5773
▁retards	-5774
▁impliqus	-5775
aison	-5776
▁lhumanit	-5777
duvre	-5778
▁partageons	-5779
▁droite	-5780
▁transparente	-5781
▁recti	-5782
▁lautriche	-5783
▁dil	-5784
▁endro	-5785
▁discip	-5786
▁ralise	-5787
▁vivant	-5788
▁transactions	-5789
▁lissue	-5790
▁rcipro	-5791
▁sudoise	-5792
▁attaques	-5793
▁nousmmes	-5794
isson	-5795
▁repos	-5796
▁partager	-5797
▁constamment	-5798
▁flotte	-5799
▁associations	-5800
▁journalistes	-5801
▁appris	-5802
▁moteur	-5803
▁ru	-5804
▁gas	-5805
▁puissance	-5806
▁recherches	-5807
▁reprsenter	-5808
aution	-5809
▁voque	-5810
▁cesser	-5811
▁interr	-5812
▁lextension	-5813
mant	-5814
▁rit	-5815
▁feront	-5816
▁bles	-5817
▁lorateur	-5818
formit	-5819
▁inspe	-5820
▁crites	-5821
▁doutes	-5822
▁progressivement	-5823
▁biodi	-5824
▁slovaquie	-5825
▁collective	-5826
▁coordonner	-5827
ondre	-5828
▁suit	-5829
▁refuse	-5830
▁attentivement	-5831
▁diverg	-5832
▁modifie	-5833
▁biodiversit	-5834
▁critre	-5835
▁posent	-5836
▁salaris	-5837
▁stimuler	-5838
▁rpression	-5839
▁nerlandais	-5840
▁dintervention	-5841
▁communications	-5842
▁voient	-5843
▁transformation	-5844
▁flicitations	-5845
ong	-5846
ocar	-5847
▁prov	-5848
▁belge	-5849
▁dinsta	-5850
▁palestinien	-5851
▁inclu	-5852
▁couvrir	-5853
cture	-5854
▁adquat	-5855
▁engend	-5856
ule	-5857
▁vari	-5858
▁mater	-5859
▁largie	-5860
▁pension	-5861
▁mainduvre	-5862
▁italien	-5863
▁planification	-5864
▁espre	-5865
▁lectorale	-5866
trait	-5867
▁daccepter	-5868
▁lorsquils	-5869
ox	-5870
▁join	-5871
▁tourn	-5872
▁modalits	-5873
▁spcifiquement	-5874
▁fiscalit	-5875
roissement	-5876
▁envisag	-5877
ati	-5878
encer	-5879
ivers	-5880
luence	-5881
▁macro	-5882
justement	-5883
▁ryth	-5884
▁prati	-5885
▁transmettre	-5886
▁esti	-5887
▁lampleur	-5888
▁libration	-5889
conom	-5890
▁montants	-5891
▁applicable	-5892
▁lappel	-5893
▁opposs	-5894
▁gographique	-5895
▁disons	-5896
oyer	-5897
▁dvaluer	-5898
▁jouent	-5899
ccasions	-5900
▁affi	-5901
▁dnon	-5902
▁fassent	-5903
▁respectue	-5904
▁tiendra	-5905
▁constructif	-5906
▁dlargissement	-5907
irait	-5908
▁oral	-5909
▁pluriann	-5910
▁log	-5911
▁dexper	-5912
▁lemp	-5913
biliser	-5914
▁arrt	-5915
▁concret	-5916
▁espagne	-5917
▁symp	-5918
▁veille	-5919
▁prcises	-5920
▁revendi	-5921
▁instaurer	-5922
▁intri	-5923
▁rvolution	-5924
▁cs	-5925
▁dfavor	-5926
▁informs	-5927
▁collaborer	-5928
▁prvus	-5929
▁lidenti	-5930
▁eurom	-5931
▁soulever	-5932
▁rapprocher	-5933
▁jeux	-5934
▁provoqu	-5935
▁supr	-5936
▁leffet	-5937
▁transfrontalire	-5938
mos	-5939
lers	-5940
▁stable	-5941
▁protectionn	-5942
len	-5943
run	-5944
lets	-5945
▁srs	-5946
▁coll	-5947
▁genve	-5948
▁nuit	-5949
▁dactions	-5950
▁fou	-5951
▁enje	-5952
▁mouvements	-5953
▁diz	-5954
▁correcte	-5955
ony	-5956
mping	-5957
▁morts	-5958
▁plaintes	-5959
▁satisfaisante	-5960
une	-5961
▁essay	-5962
▁accompa	-5963
▁priodes	-5964
▁garantit	-5965
▁japprouve	-5966
▁demandeurs	-5967
▁opposition	-5968
▁sucre	-5969
▁tragdie	-5970
▁entraner	-5971
▁prcdents	-5972
▁lesb	-5973
▁combus	-5974
▁daller	-5975
oupes	-5976
▁rub	-5977
sements	-5978
pement	-5979
▁fla	-5980
▁rtablir	-5981
▁immdiate	-5982
▁ence	-5983
▁dirai	-5984
▁libral	-5985
▁conscient	-5986
▁devienne	-5987
▁dimposer	-5988
▁quotidien	-5989
▁loccurrence	-5990
▁indpendamment	-5991
▁intellectuelle	-5992
▁discriminations	-5993
▁deau	-5994
▁lassistance	-5995
▁gaza	-5996
▁collecte	-5997
▁socioc	-5998
za	-5999
fies	-6000
lars	-6001
▁finir	-6002
▁lespre	-6003
▁damrique	-6004
▁concentre	-6005
▁innov	-6006
▁rcents	-6007
▁composition	-6008
▁cancer	-6009
▁outils	-6010
▁lever	-6011
▁rcentes	-6012
▁lgislature	-6013
▁leon	-6014
▁opportunits	-6015
poth	-6016
▁proposons	-6017
▁spor	-6018
trm	-6019
▁aboutir	-6020
nalit	-6021
▁rome	-6022
▁prjudice	-6023
▁condamner	-6024
▁transformer	-6025
▁btiments	-6026
▁culturels	-6027
▁maroc	-6028
▁lanalyse	-6029
▁pouvonsnous	-6030
▁compensation	-6031
▁humanitaires	-6032
▁insiste	-6033
▁culturelles	-6034
tribution	-6035
tration	-6036
▁ap	-6037
▁stu	-6038
▁diminuer	-6039
▁fermeture	-6040
▁donnent	-6041
▁cee	-6042
▁laspect	-6043
▁industriels	-6044
▁cul	-6045
▁rsistance	-6046
erte	-6047
▁rang	-6048
ties	-6049
▁ment	-6050
▁lgislatifs	-6051
▁contradiction	-6052
▁sh	-6053
▁mondiaux	-6054
▁sexprimer	-6055
▁dgra	-6056
▁attent	-6057
▁chrtiens	-6058
▁opportunit	-6059
▁linvestissement	-6060
▁dgts	-6061
▁disral	-6062
▁organiser	-6063
▁stabilisation	-6064
▁srieuse	-6065
▁milliard	-6066
seur	-6067
ino	-6068
▁lli	-6069
▁neuf	-6070
▁fructue	-6071
▁lchec	-6072
▁promis	-6073
▁italienne	-6074
▁souffrent	-6075
▁dassurance	-6076
▁ltr	-6077
▁doter	-6078
▁prioritaires	-6079
laient	-6080
▁chelle	-6081
▁occasions	-6082
▁consolidation	-6083
▁rda	-6084
ercer	-6085
▁indu	-6086
▁croissant	-6087
▁dollars	-6088
▁imposes	-6089
mpe	-6090
rentissage	-6091
▁defficacit	-6092
▁comptent	-6093
▁priva	-6094
▁classi	-6095
▁modles	-6096
rires	-6097
▁prives	-6098
▁conclus	-6099
pir	-6100
▁liban	-6101
▁mette	-6102
▁million	-6103
▁tribunaux	-6104
▁lalimentation	-6105
cidence	-6106
▁sites	-6107
▁chypri	-6108
▁agriculture	-6109
▁mas	-6110
endrai	-6111
▁dommage	-6112
▁dexprimer	-6113
▁ventuellement	-6114
times	-6115
▁bilatraux	-6116
oyale	-6117
▁recy	-6118
▁silence	-6119
▁consolider	-6120
▁faux	-6121
guer	-6122
voquer	-6123
▁inclus	-6124
▁routes	-6125
▁devenue	-6126
anges	-6127
▁jins	-6128
▁impression	-6129
ow	-6130
▁gntiquement	-6131
gure	-6132
▁programmation	-6133
▁pharma	-6134
▁dimportance	-6135
laf	-6136
▁demi	-6137
▁aggra	-6138
▁spcialement	-6139
▁mu	-6140
▁dloc	-6141
▁expos	-6142
▁ajout	-6143
▁mens	-6144
▁dmocratisation	-6145
▁auteurs	-6146
loc	-6147
tude	-6148
▁dlic	-6149
▁tentatives	-6150
▁pourcentage	-6151
▁noire	-6152
▁canada	-6153
▁animale	-6154
▁fiscaux	-6155
haus	-6156
▁rin	-6157
▁dang	-6158
▁lourde	-6159
▁socioconom	-6160
▁sauf	-6161
▁inscrit	-6162
▁impliquant	-6163
mistes	-6164
▁artis	-6165
dresser	-6166
▁comptentes	-6167
▁prioritaire	-6168
▁concentration	-6169
▁trom	-6170
▁diffusion	-6171
▁llimination	-6172
larits	-6173
▁unanime	-6174
▁ltranger	-6175
▁allant	-6176
▁officielle	-6177
ail	-6178
▁pier	-6179
▁rconc	-6180
▁convaincus	-6181
▁ltiquetage	-6182
▁cho	-6183
▁cess	-6184
▁pices	-6185
▁afghanistan	-6186
▁birmanie	-6187
chrtiens	-6188
▁ol	-6189
▁lancienne	-6190
▁quar	-6191
▁personn	-6192
▁tablissant	-6193
▁assass	-6194
▁daucun	-6195
▁admettre	-6196
▁tudiants	-6197
▁daccords	-6198
car	-6199
▁ltre	-6200
▁provis	-6201
▁progressive	-6202
▁hommage	-6203
tise	-6204
▁phil	-6205
▁sappliqu	-6206
▁particulires	-6207
▁personnelle	-6208
▁massive	-6209
▁primordial	-6210
▁exploitations	-6211
▁uns	-6212
▁envoyer	-6213
▁propag	-6214
▁entamer	-6215
▁venez	-6216
▁maintes	-6217
▁susceptible	-6218
▁utilisateurs	-6219
▁sovi	-6220
▁jatt	-6221
▁employs	-6222
▁sattaquer	-6223
▁alternative	-6224
▁transposition	-6225
▁allou	-6226
▁denqute	-6227
▁rendent	-6228
▁soutenue	-6229
▁danois	-6230
▁bnficie	-6231
▁dempcher	-6232
▁accomplir	-6233
▁soutiennent	-6234
▁devaient	-6235
▁pay	-6236
▁rsol	-6237
▁touchs	-6238
tilit	-6239
▁ncessairement	-6240
▁bnfice	-6241
▁directeur	-6242
▁ignor	-6243
▁dploys	-6244
▁ferons	-6245
▁administration	-6246
viser	-6247
▁locale	-6248
▁ouverture	-6249
▁diversi	-6250
▁complmentaire	-6251
▁enqutes	-6252
ocis	-6253
▁contraintes	-6254
▁sk	-6255
oul	-6256
▁couvre	-6257
▁adresse	-6258
sit	-6259
▁gnraux	-6260
▁organe	-6261
▁lituanie	-6262
▁globalement	-6263
▁matr	-6264
▁prouver	-6265
▁quaucun	-6266
ares	-6267
tein	-6268
▁reoivent	-6269
▁soumises	-6270
▁pat	-6271
istri	-6272
▁inond	-6273
▁indpendance	-6274
▁couv	-6275
▁volume	-6276
▁communiste	-6277
lif	-6278
▁bei	-6279
▁dfinis	-6280
▁musul	-6281
▁dfiniti	-6282
▁migrants	-6283
▁rejoindre	-6284
▁constatons	-6285
▁sappliquer	-6286
ley	-6287
▁turc	-6288
▁jusquau	-6289
▁liminer	-6290
▁parvenu	-6291
▁lancement	-6292
▁subvention	-6293
cite	-6294
lages	-6295
▁prison	-6296
▁dchange	-6297
▁ingalits	-6298
▁deviennent	-6299
rive	-6300
▁naurait	-6301
gt	-6302
ach	-6303
▁salaire	-6304
nophob	-6305
▁rcent	-6306
▁dgager	-6307
vr	-6308
▁lorsquelle	-6309
▁galit	-6310
▁fabric	-6311
▁augmente	-6312
▁complter	-6313
▁fo	-6314
gies	-6315
ypoc	-6316
▁xnophob	-6317
▁comptitive	-6318
▁her	-6319
▁micro	-6320
▁disponible	-6321
▁scru	-6322
▁ultrapri	-6323
▁fondement	-6324
nelles	-6325
▁autorise	-6326
▁zimbabwe	-6327
▁chec	-6328
▁dsir	-6329
▁lintg	-6330
▁complexes	-6331
▁confusion	-6332
▁syndicats	-6333
▁oubli	-6334
▁tenons	-6335
▁durables	-6336
▁figurent	-6337
▁profondeur	-6338
▁lair	-6339
▁dexperts	-6340
bon	-6341
▁lemb	-6342
issants	-6343
igence	-6344
▁terres	-6345
▁por	-6346
▁domin	-6347
▁lobb	-6348
ctivits	-6349
▁nourrit	-6350
▁troupes	-6351
▁montaires	-6352
▁chou	-6353
▁longues	-6354
▁dsaccord	-6355
▁lectroniques	-6356
▁adquates	-6357
ussie	-6358
▁fortes	-6359
▁gagn	-6360
▁coordonne	-6361
▁rpa	-6362
▁sacri	-6363
▁approbation	-6364
dration	-6365
oriques	-6366
▁requiert	-6367
ignements	-6368
▁tradition	-6369
▁utilisant	-6370
▁vienne	-6371
▁routier	-6372
▁laviation	-6373
▁euromditerran	-6374
ypte	-6375
▁inex	-6376
tisme	-6377
▁muni	-6378
▁vnement	-6379
▁physique	-6380
▁maritimes	-6381
▁frqu	-6382
ronter	-6383
endies	-6384
▁exerce	-6385
▁dtermine	-6386
bs	-6387
▁allg	-6388
▁forc	-6389
▁risquent	-6390
▁manifestations	-6391
ani	-6392
▁rej	-6393
ortunit	-6394
▁lurgence	-6395
jeurs	-6396
▁majeurs	-6397
▁traditions	-6398
xb	-6399
▁crite	-6400
▁horiz	-6401
▁options	-6402
▁demandant	-6403
▁combler	-6404
▁violences	-6405
onte	-6406
raison	-6407
▁relvent	-6408
▁allusion	-6409
▁molda	-6410
titudes	-6411
▁lectri	-6412
▁jattends	-6413
culer	-6414
▁ntaient	-6415
▁lalliance	-6416
▁surveiller	-6417
▁leffort	-6418
▁personnelles	-6419
▁investisseurs	-6420
▁multinationales	-6421
chnie	-6422
▁prome	-6423
▁approfon	-6424
ester	-6425
▁and	-6426
registre	-6427
pacit	-6428
▁conformit	-6429
▁concrtiser	-6430
▁structurelle	-6431
▁systmatiquement	-6432
▁dizaines	-6433
abit	-6434
titut	-6435
▁multiples	-6436
▁ventuelle	-6437
fici	-6438
▁sold	-6439
▁indemn	-6440
rabilit	-6441
▁entrepris	-6442
▁tchtchnie	-6443
▁dassistance	-6444
▁cy	-6445
▁lann	-6446
▁obligatoires	-6447
▁sav	-6448
▁respects	-6449
▁hongro	-6450
▁dtention	-6451
▁ambitions	-6452
▁incontest	-6453
▁dindi	-6454
▁lunit	-6455
▁adoption	-6456
▁jugement	-6457
▁tu	-6458
argo	-6459
line	-6460
▁dintr	-6461
▁ngatifs	-6462
▁passant	-6463
▁fourniture	-6464
▁mobilisation	-6465
▁sw	-6466
▁duca	-6467
▁rythme	-6468
▁rigoure	-6469
▁universel	-6470
ilier	-6471
▁individuels	-6472
▁deng	-6473
ctualit	-6474
▁obtenus	-6475
▁vitesse	-6476
▁comptente	-6477
▁ps	-6478
▁lancien	-6479
▁restera	-6480
▁daccueil	-6481
▁noublions	-6482
▁amricaines	-6483
▁mne	-6484
▁prpare	-6485
▁serais	-6486
▁ethniques	-6487
ralit	-6488
▁oblige	-6489
▁sco	-6490
▁spciale	-6491
▁lgitimes	-6492
▁suggestions	-6493
▁dac	-6494
▁veill	-6495
▁prenant	-6496
▁torture	-6497
▁renoncer	-6498
▁orale	-6499
▁explication	-6500
▁travaillons	-6501
▁dcrit	-6502
▁autonom	-6503
▁dtaille	-6504
▁jeune	-6505
▁poisson	-6506
orientation	-6507
istait	-6508
▁vigil	-6509
ctique	-6510
▁cologiques	-6511
▁confronte	-6512
▁participent	-6513
▁complmentaires	-6514
▁caus	-6515
cevoir	-6516
▁laiti	-6517
▁slection	-6518
▁transatlantique	-6519
▁numrique	-6520
▁relevant	-6521
▁dv	-6522
▁canc	-6523
▁dores	-6524
▁entam	-6525
▁palestinienne	-6526
▁ordin	-6527
▁suisse	-6528
▁llectricit	-6529
dom	-6530
tex	-6531
urir	-6532
▁mur	-6533
▁quival	-6534
▁hmicycle	-6535
▁poissons	-6536
▁bateaux	-6537
▁rigueur	-6538
ctuel	-6539
▁tolrance	-6540
▁lge	-6541
otechn	-6542
▁vieil	-6543
▁rencontr	-6544
▁souha	-6545
prtation	-6546
▁dintrts	-6547
▁lenfant	-6548
▁produisent	-6549
lue	-6550
▁vues	-6551
olm	-6552
tance	-6553
▁incor	-6554
▁dorganiser	-6555
▁rares	-6556
▁soudan	-6557
▁matriel	-6558
▁univers	-6559
▁dplore	-6560
▁quaprs	-6561
▁lexpression	-6562
▁courte	-6563
▁dcouver	-6564
lifration	-6565
▁employeurs	-6566
▁danim	-6567
▁dinstaurer	-6568
▁portugaise	-6569
▁division	-6570
▁transeuropens	-6571
▁hautement	-6572
▁fournisseurs	-6573
▁tiennent	-6574
▁cellu	-6575
▁comprennent	-6576
▁consultations	-6577
onns	-6578
▁fermer	-6579
sibles	-6580
▁devions	-6581
▁utilisent	-6582
▁devez	-6583
▁defforts	-6584
▁normment	-6585
▁similaire	-6586
▁nomination	-6587
▁suc	-6588
osoph	-6589
prime	-6590
▁dissi	-6591
▁proches	-6592
▁profite	-6593
▁exception	-6594
▁vies	-6595
▁acclrer	-6596
▁craintes	-6597
▁navigation	-6598
▁ogm	-6599
▁ariens	-6600
▁bla	-6601
▁conj	-6602
ulsion	-6603
▁ble	-6604
▁new	-6605
▁bass	-6606
▁limitation	-6607
rop	-6608
▁mpr	-6609
dmocrates	-6610
▁dintervenir	-6611
▁dsar	-6612
▁victime	-6613
▁jinsiste	-6614
▁impliquer	-6615
▁rgulation	-6616
fas	-6617
▁assurment	-6618
▁div	-6619
isser	-6620
▁acqu	-6621
▁dfinies	-6622
▁agenda	-6623
▁philosoph	-6624
▁lolaf	-6625
▁polic	-6626
▁dcisif	-6627
▁genres	-6628
▁aver	-6629
▁rformer	-6630
▁argument	-6631
▁uniforme	-6632
ala	-6633
▁croyons	-6634
▁prcaution	-6635
fghanistan	-6636
▁respectant	-6637
▁phra	-6638
▁clauses	-6639
▁rejette	-6640
▁simpose	-6641
dev	-6642
▁conne	-6643
chat	-6644
tations	-6645
▁sauver	-6646
▁encourageant	-6647
▁chanti	-6648
▁dangers	-6649
▁combusti	-6650
▁taxation	-6651
▁lopportunit	-6652
▁significatif	-6653
ling	-6654
▁dexercer	-6655
▁barn	-6656
▁consistant	-6657
▁doha	-6658
▁dopp	-6659
▁faim	-6660
▁lieux	-6661
▁londres	-6662
▁danimaux	-6663
▁interdit	-6664
▁portugais	-6665
▁divergences	-6666
▁luem	-6667
tini	-6668
▁palestine	-6669
▁marche	-6670
▁incendies	-6671
▁the	-6672
▁rdaction	-6673
▁destination	-6674
▁fro	-6675
▁bomb	-6676
▁bilor	-6677
▁condamnation	-6678
▁ko	-6679
▁addi	-6680
▁hongrois	-6681
▁incer	-6682
▁voterons	-6683
ry	-6684
▁bour	-6685
▁congo	-6686
▁combin	-6687
▁migration	-6688
▁inondations	-6689
rter	-6690
▁choc	-6691
▁individus	-6692
ng	-6693
blin	-6694
quant	-6695
▁europol	-6696
▁quelquesun	-6697
▁denvironnement	-6698
feu	-6699
▁diminu	-6700
▁dmographique	-6701
▁lchelon	-6702
▁remerci	-6703
cin	-6704
▁textile	-6705
▁dpendent	-6706
▁qualifications	-6707
▁nglige	-6708
iversaire	-6709
▁prcdentes	-6710
▁bois	-6711
▁vil	-6712
▁prudence	-6713
▁dlgations	-6714
▁publication	-6715
ja	-6716
▁foi	-6717
▁fixes	-6718
▁remet	-6719
▁mercre	-6720
rich	-6721
▁ferait	-6722
▁arienne	-6723
▁interro	-6724
▁soccup	-6725
▁contenter	-6726
▁juger	-6727
▁lundi	-6728
▁touches	-6729
▁participants	-6730
engl	-6731
▁rduite	-6732
▁africains	-6733
▁communiquer	-6734
tensi	-6735
▁larrt	-6736
▁guengl	-6737
▁dumping	-6738
▁considrs	-6739
voie	-6740
▁poses	-6741
▁conjointement	-6742
▁mos	-6743
▁ngatives	-6744
▁immigrants	-6745
▁gasp	-6746
▁ambig	-6747
▁ltude	-6748
▁condamne	-6749
gin	-6750
▁feuille	-6751
▁dmontrer	-6752
▁conservateurs	-6753
▁prochainement	-6754
▁rgne	-6755
▁mercredi	-6756
▁mines	-6757
▁sovitique	-6758
▁lgif	-6759
▁dublin	-6760
▁contraignant	-6761
ension	-6762
trieurs	-6763
▁prends	-6764
▁suffisantes	-6765
▁anniversaire	-6766
▁bu	-6767
▁macroconom	-6768
tari	-6769
▁wal	-6770
▁englob	-6771
▁russir	-6772
▁exprims	-6773
▁ethnique	-6774
▁vertsale	-6775
tements	-6776
▁absurde	-6777
▁quatrimement	-6778
▁favorablement	-6779
▁portes	-6780
▁rencontrer	-6781
▁gol	-6782
▁chapp	-6783
▁tapes	-6784
yl	-6785
▁ord	-6786
▁prononc	-6787
▁chme	-6788
▁cible	-6789
▁rjouir	-6790
▁crdible	-6791
▁tablies	-6792
▁cau	-6793
iliers	-6794
▁appui	-6795
▁douze	-6796
▁chemins	-6797
▁imparti	-6798
emp	-6799
respons	-6800
▁circonscription	-6801
▁plafond	-6802
housiasme	-6803
▁sab	-6804
▁dses	-6805
▁rapprochement	-6806
arra	-6807
▁barrires	-6808
▁dexcution	-6809
▁rechercher	-6810
▁commentaire	-6811
roy	-6812
▁prfre	-6813
▁transmis	-6814
▁mineurs	-6815
▁eau	-6816
igne	-6817
▁placer	-6818
mans	-6819
ores	-6820
ctori	-6821
▁site	-6822
▁malte	-6823
▁rejets	-6824
▁immigrs	-6825
▁effectuer	-6826
▁nordi	-6827
▁instant	-6828
▁appelons	-6829
▁sida	-6830
▁dinclure	-6831
▁ultrieure	-6832
▁transporte	-6833
▁mani	-6834
▁atteints	-6835
▁dtour	-6836
▁actifs	-6837
▁sappu	-6838
▁pestici	-6839
▁implications	-6840
▁kil	-6841
▁prag	-6842
▁noter	-6843
▁extrme	-6844
▁directs	-6845
▁vendredi	-6846
▁considrent	-6847
ints	-6848
▁nes	-6849
▁tar	-6850
▁arrter	-6851
▁livres	-6852
▁entrepren	-6853
▁adhrer	-6854
▁gravit	-6855
▁loffre	-6856
▁appeler	-6857
▁piliers	-6858
▁valable	-6859
▁souhaits	-6860
▁judicieux	-6861
▁modifiant	-6862
▁ash	-6863
▁chute	-6864
▁partisans	-6865
▁ami	-6866
▁prservation	-6867
▁ml	-6868
▁brsil	-6869
▁express	-6870
▁stockage	-6871
▁concurrenti	-6872
▁indicateurs	-6873
bi	-6874
▁inscr	-6875
▁biocar	-6876
▁colomb	-6877
ych	-6878
▁gards	-6879
▁emprun	-6880
▁constante	-6881
sives	-6882
▁franc	-6883
▁tensions	-6884
▁rconciliation	-6885
visager	-6886
▁tablit	-6887
▁explicitement	-6888
▁voulez	-6889
sen	-6890
▁soin	-6891
▁exhaus	-6892
▁sinscrit	-6893
▁routire	-6894
▁universits	-6895
▁xx	-6896
▁pharmace	-6897
▁intervenants	-6898
▁volet	-6899
▁limage	-6900
▁contenues	-6901
▁sad	-6902
▁fallu	-6903
tresse	-6904
▁arbit	-6905
▁inviter	-6906
▁ngative	-6907
▁poursuit	-6908
▁entreprendre	-6909
▁donnera	-6910
▁rjouissons	-6911
▁recycla	-6912
▁masse	-6913
▁exigence	-6914
▁hongroise	-6915
▁religieuses	-6916
▁impati	-6917
▁pertur	-6918
▁grandement	-6919
▁impri	-6920
▁examinons	-6921
▁juridiquement	-6922
▁deffe	-6923
▁specta	-6924
▁ignorer	-6925
▁camps	-6926
▁satel	-6927
ciation	-6928
▁fiscal	-6929
▁signer	-6930
▁soulve	-6931
▁charbon	-6932
▁richesse	-6933
vateur	-6934
▁vague	-6935
▁adress	-6936
▁tunisie	-6937
▁patten	-6938
▁suscite	-6939
▁autoris	-6940
▁chmeurs	-6941
▁comport	-6942
▁japprcie	-6943
▁saluons	-6944
▁accident	-6945
▁rubrique	-6946
vants	-6947
▁datt	-6948
mateurs	-6949
▁classe	-6950
▁bran	-6951
▁bancaire	-6952
▁maison	-6953
▁stricte	-6954
▁diox	-6955
▁lqui	-6956
▁situe	-6957
▁douvrir	-6958
▁pesticides	-6959
▁potentiels	-6960
▁lafghanistan	-6961
▁directivecadre	-6962
▁urgente	-6963
▁dinnovation	-6964
▁arrire	-6965
ccupation	-6966
▁impliques	-6967
sm	-6968
▁dva	-6969
atrice	-6970
▁rclame	-6971
▁unie	-6972
tenues	-6973
▁irrgu	-6974
▁fictifs	-6975
▁explique	-6976
▁modifis	-6977
▁expressment	-6978
▁pourrais	-6979
▁poursuivi	-6980
▁dattention	-6981
▁apparemment	-6982
▁mt	-6983
tige	-6984
▁norma	-6985
▁nourriture	-6986
oient	-6987
▁rsulte	-6988
▁science	-6989
▁prsentant	-6990
isses	-6991
▁issus	-6992
▁salari	-6993
▁lexception	-6994
▁historiques	-6995
▁prfrable	-6996
▁registre	-6997
▁observer	-6998
▁excessive	-6999
▁instances	-7000
▁vols	-7001
▁agents	-7002
▁financements	-7003
mie	-7004
▁tlphon	-7005
ographie	-7006
▁esc	-7007
▁nab	-7008
▁comits	-7009
▁dobjecti	-7010
▁simult	-7011
▁quantits	-7012
▁partiellement	-7013
▁assi	-7014
▁mest	-7015
▁lannexe	-7016
▁rvle	-7017
▁regarder	-7018
▁traduire	-7019
▁alde	-7020
▁nent	-7021
▁apportes	-7022
ovis	-7023
prop	-7024
vidence	-7025
▁oppose	-7026
▁secret	-7027
com	-7028
▁dfic	-7029
▁tudier	-7030
▁licencie	-7031
▁entretemps	-7032
▁satisfaits	-7033
▁dficits	-7034
▁attentats	-7035
▁compagnie	-7036
▁dictature	-7037
▁absence	-7038
▁saurait	-7039
▁dcisionnel	-7040
▁quaujourdhui	-7041
wan	-7042
▁ferai	-7043
▁gratu	-7044
▁honnte	-7045
▁tmoigne	-7046
▁flexible	-7047
anment	-7048
▁runir	-7049
▁stipule	-7050
▁estelle	-7051
▁dafrique	-7052
▁vivons	-7053
osce	-7054
▁cam	-7055
curit	-7056
mosph	-7057
uaires	-7058
▁doffrir	-7059
▁adoptant	-7060
▁tragique	-7061
▁biologique	-7062
▁transmission	-7063
▁biocarburants	-7064
oureux	-7065
▁dynam	-7066
▁dcisive	-7067
▁compromet	-7068
▁rglementer	-7069
▁pair	-7070
▁brevet	-7071
▁ration	-7072
▁technologiques	-7073
▁isol	-7074
▁dirig	-7075
▁isla	-7076
▁fores	-7077
▁drogation	-7078
▁simposent	-7079
▁terroriste	-7080
liste	-7081
▁dmant	-7082
▁oriental	-7083
▁administrations	-7084
▁partenariats	-7085
▁solana	-7086
▁sollic	-7087
▁complexit	-7088
▁ambitieuse	-7089
▁servent	-7090
▁handicaps	-7091
▁rvl	-7092
▁syrie	-7093
▁massac	-7094
▁distribu	-7095
▁rmunration	-7096
ork	-7097
▁roth	-7098
▁faisait	-7099
▁clandestine	-7100
▁fabricants	-7101
▁dajustement	-7102
▁quotidienne	-7103
ski	-7104
dions	-7105
▁nfas	-7106
▁stup	-7107
▁fisch	-7108
▁recyclage	-7109
▁srieuses	-7110
▁plate	-7111
▁dintgrer	-7112
▁occidentale	-7113
qua	-7114
▁dinstru	-7115
▁ducation	-7116
▁prconise	-7117
▁daffaires	-7118
▁paragraphes	-7119
▁ais	-7120
▁dos	-7121
tatif	-7122
▁option	-7123
▁contrat	-7124
▁contrefa	-7125
▁chercheurs	-7126
▁douverture	-7127
zi	-7128
▁lgal	-7129
▁rsolus	-7130
▁actives	-7131
▁familiale	-7132
▁agi	-7133
▁flor	-7134
▁digne	-7135
▁quaucune	-7136
▁interprtation	-7137
▁bush	-7138
▁quitables	-7139
▁comitologie	-7140
▁foot	-7141
▁autrichienne	-7142
▁viable	-7143
▁associs	-7144
▁bor	-7145
▁concertation	-7146
teste	-7147
▁dres	-7148
▁sache	-7149
▁dfinitif	-7150
▁distance	-7151
▁vide	-7152
formes	-7153
▁soumet	-7154
missible	-7155
▁franchement	-7156
▁productivit	-7157
▁supervision	-7158
▁continuerons	-7159
han	-7160
▁veu	-7161
▁signes	-7162
▁enceinte	-7163
ayer	-7164
ensit	-7165
▁vali	-7166
▁morale	-7167
erz	-7168
holm	-7169
▁relles	-7170
▁traitements	-7171
eff	-7172
▁impr	-7173
▁disait	-7174
▁moldavie	-7175
▁cte	-7176
▁appe	-7177
▁secrtari	-7178
▁voudrait	-7179
once	-7180
atures	-7181
▁modernes	-7182
▁valuations	-7183
gni	-7184
▁erron	-7185
▁contenant	-7186
cl	-7187
▁jent	-7188
▁concl	-7189
▁empche	-7190
▁strictement	-7191
▁lende	-7192
▁souvenir	-7193
son	-7194
▁larg	-7195
▁droule	-7196
▁disposs	-7197
▁corriger	-7198
▁linstitution	-7199
▁coton	-7200
▁galile	-7201
▁pourrie	-7202
▁lobby	-7203
▁ralises	-7204
▁identifi	-7205
isons	-7206
krain	-7207
ignent	-7208
▁pierre	-7209
▁prononce	-7210
oit	-7211
▁fiables	-7212
▁mobiliser	-7213
ocier	-7214
▁daides	-7215
▁identit	-7216
▁victoire	-7217
▁neu	-7218
▁rclam	-7219
▁externes	-7220
▁prcision	-7221
▁pertinentes	-7222
govine	-7223
▁correct	-7224
▁poursuiv	-7225
▁disparits	-7226
▁alar	-7227
▁foss	-7228
ratifs	-7229
▁fautil	-7230
▁donnant	-7231
▁logement	-7232
▁certitude	-7233
▁absent	-7234
▁sachant	-7235
▁soldats	-7236
▁traduit	-7237
▁fdration	-7238
▁fischler	-7239
▁saine	-7240
▁footbal	-7241
▁pril	-7242
▁tire	-7243
▁svres	-7244
▁prval	-7245
▁dnoncer	-7246
▁assister	-7247
▁diplomatique	-7248
▁paris	-7249
▁serai	-7250
▁rapides	-7251
▁sympath	-7252
ralisation	-7253
▁interdire	-7254
▁eh	-7255
▁impts	-7256
▁quipements	-7257
▁traites	-7258
▁intgrante	-7259
▁prvisions	-7260
▁ashton	-7261
▁exister	-7262
▁joindre	-7263
▁termine	-7264
▁illustre	-7265
▁fonctionn	-7266
rid	-7267
endent	-7268
▁mentionns	-7269
▁discipline	-7270
▁nin	-7271
lition	-7272
▁survie	-7273
▁affecte	-7274
▁dmantlement	-7275
▁rve	-7276
▁fmin	-7277
▁impratif	-7278
▁go	-7279
▁mille	-7280
ugen	-7281
▁congrs	-7282
heugen	-7283
▁autoriss	-7284
▁prsentera	-7285
▁mor	-7286
▁galileo	-7287
▁semestre	-7288
▁respectes	-7289
▁jusquen	-7290
ctivement	-7291
▁dutilisation	-7292
▁brok	-7293
▁collge	-7294
▁dtenus	-7295
▁verheugen	-7296
brer	-7297
▁trente	-7298
ulz	-7299
▁parcour	-7300
▁ratifier	-7301
▁enregistre	-7302
▁sanitaires	-7303
terr	-7304
▁entr	-7305
▁satt	-7306
disant	-7307
▁analyses	-7308
▁stockholm	-7309
▁dramatique	-7310
▁inno	-7311
▁plant	-7312
erzgovine	-7313
▁viabilit	-7314
▁rsum	-7315
▁subir	-7316
▁qualifi	-7317
▁biotechn	-7318
▁fabrication	-7319
▁transparent	-7320
▁jug	-7321
▁schulz	-7322
▁turque	-7323
▁quiconque	-7324
▁prcieux	-7325
▁sectori	-7326
▁suspend	-7327
▁lautorisation	-7328
▁dcs	-7329
▁couter	-7330
mpere	-7331
▁denvisager	-7332
▁bata	-7333
▁lobser	-7334
▁grecque	-7335
▁mettons	-7336
▁terrible	-7337
ato	-7338
▁sam	-7339
▁subi	-7340
▁arrts	-7341
▁diffre	-7342
▁souples	-7343
▁dobjectifs	-7344
▁labolition	-7345
▁attaque	-7346
▁vidente	-7347
▁dactivit	-7348
▁consciente	-7349
chera	-7350
▁agres	-7351
irmer	-7352
▁annonce	-7353
▁tampere	-7354
▁vtr	-7355
▁ntre	-7356
ueille	-7357
▁lourds	-7358
▁volutions	-7359
▁dinstruments	-7360
▁tonn	-7361
▁ventes	-7362
▁libye	-7363
▁adapter	-7364
▁appropris	-7365
▁dhier	-7366
▁dtendre	-7367
▁annuelle	-7368
▁conformer	-7369
▁promesse	-7370
▁touchent	-7371
▁secrtariat	-7372
▁alban	-7373
orables	-7374
▁naissance	-7375
▁suspension	-7376
▁observateurs	-7377
▁officiellement	-7378
lies	-7379
▁von	-7380
▁dnor	-7381
▁verte	-7382
▁suivie	-7383
▁pluriannuel	-7384
▁rembour	-7385
▁lorientation	-7386
▁kin	-7387
▁nomin	-7388
▁souleves	-7389
▁allemands	-7390
▁margin	-7391
▁exigent	-7392
▁illgaux	-7393
▁dqui	-7394
▁lbas	-7395
▁protgs	-7396
▁lactuelle	-7397
reur	-7398
▁minu	-7399
uropen	-7400
▁commet	-7401
▁favorise	-7402
▁linguistique	-7403
enant	-7404
▁horizont	-7405
▁lorsquon	-7406
▁nuis	-7407
aliste	-7408
▁sixime	-7409
▁ukrain	-7410
▁inutiles	-7411
▁relancer	-7412
ctus	-7413
▁colon	-7414
▁parviendrons	-7415
▁satisfaisant	-7416
▁sensibilisation	-7417
qurir	-7418
▁crai	-7419
▁pesc	-7420
▁remis	-7421
▁profits	-7422
▁jentends	-7423
▁exploiter	-7424
▁lapprentissage	-7425
▁enver	-7426
▁losce	-7427
▁fermes	-7428
▁censure	-7429
▁slovnie	-7430
▁param	-7431
▁bananes	-7432
▁diffren	-7433
▁end	-7434
▁bruit	-7435
▁mpris	-7436
▁savrer	-7437
▁quitter	-7438
▁provoquer	-7439
▁crant	-7440
▁cofinancement	-7441
trme	-7442
▁lvent	-7443
▁participe	-7444
▁dbl	-7445
▁rense	-7446
▁dnormes	-7447
▁gravement	-7448
▁maximale	-7449
▁fid	-7450
▁sensiblement	-7451
cra	-7452
ymp	-7453
▁aspi	-7454
▁lappui	-7455
▁lintgrit	-7456
▁traduction	-7457
▁rat	-7458
▁sis	-7459
▁darrt	-7460
▁ouvre	-7461
▁pnales	-7462
▁surpris	-7463
▁infractions	-7464
▁jun	-7465
▁mich	-7466
▁issue	-7467
▁tarif	-7468
▁ferroviaires	-7469
▁os	-7470
prhen	-7471
▁fruit	-7472
▁tibet	-7473
▁enfant	-7474
▁industriel	-7475
▁atelle	-7476
▁sparation	-7477
alier	-7478
river	-7479
▁image	-7480
▁plaid	-7481
▁naient	-7482
▁sentir	-7483
▁sembler	-7484
▁directes	-7485
▁triste	-7486
▁enjeux	-7487
▁commises	-7488
▁davancer	-7489
▁honorables	-7490
▁comparaison	-7491
▁mmoire	-7492
▁pourpar	-7493
▁tableau	-7494
▁linfluence	-7495
▁drg	-7496
trice	-7497
▁redev	-7498
▁dorient	-7499
▁constituera	-7500
▁orientation	-7501
▁pourparlers	-7502
inki	-7503
aliss	-7504
▁heur	-7505
vestir	-7506
elsinki	-7507
titutions	-7508
registrement	-7509
▁substantielle	-7510
▁aim	-7511
▁plac	-7512
▁santer	-7513
▁dinsister	-7514
▁dinvestisse	-7515
▁dimportantes	-7516
▁has	-7517
▁tang	-7518
▁remise	-7519
▁tablie	-7520
▁interromp	-7521
▁caractrise	-7522
agent	-7523
▁four	-7524
chauff	-7525
▁avancs	-7526
▁injusti	-7527
▁rsolument	-7528
nari	-7529
enses	-7530
triche	-7531
▁vtrin	-7532
▁requte	-7533
▁effectus	-7534
▁exceptions	-7535
vages	-7536
▁accru	-7537
▁rdiger	-7538
tissement	-7539
▁engendre	-7540
▁ben	-7541
▁bru	-7542
▁impu	-7543
▁attribu	-7544
▁solides	-7545
▁football	-7546
vera	-7547
▁rcol	-7548
▁amend	-7549
▁rduits	-7550
▁ractions	-7551
▁dispositif	-7552
▁dfinitivement	-7553
▁gnoci	-7554
▁illgal	-7555
▁dmissions	-7556
▁transnation	-7557
oriser	-7558
▁lhonneur	-7559
▁consister	-7560
▁pal	-7561
▁auteur	-7562
▁cellules	-7563
▁apprendre	-7564
▁transitoire	-7565
tionnellement	-7566
gine	-7567
▁fixation	-7568
▁prfrence	-7569
▁dangereuse	-7570
▁civilisation	-7571
cou	-7572
▁lead	-7573
▁retraits	-7574
▁signifier	-7575
▁mach	-7576
▁reprsentante	-7577
▁naura	-7578
▁dajouter	-7579
▁rencontres	-7580
▁liv	-7581
▁puisje	-7582
▁souses	-7583
▁rflexions	-7584
▁transferts	-7585
vn	-7586
▁hum	-7587
▁lhy	-7588
seurs	-7589
▁lusage	-7590
▁frontex	-7591
▁contenus	-7592
▁lintermdiaire	-7593
lite	-7594
▁vousmme	-7595
▁irrespons	-7596
▁pouvaient	-7597
agn	-7598
▁hypoth	-7599
▁papier	-7600
▁tourner	-7601
quons	-7602
tabilit	-7603
▁leaders	-7604
▁lvidence	-7605
▁ministri	-7606
▁exploitation	-7607
ultes	-7608
▁sexe	-7609
▁lgifrer	-7610
▁puissances	-7611
▁investissement	-7612
▁innoc	-7613
▁stand	-7614
▁douane	-7615
▁procla	-7616
▁tendue	-7617
▁majeures	-7618
▁affronter	-7619
▁lasie	-7620
▁vraie	-7621
▁bovine	-7622
▁sudest	-7623
▁chacune	-7624
▁israliens	-7625
kin	-7626
▁dabou	-7627
▁vieux	-7628
▁dment	-7629
▁strict	-7630
▁tendances	-7631
▁navez	-7632
▁provoque	-7633
▁lexigence	-7634
▁disparition	-7635
ik	-7636
▁fle	-7637
▁figurer	-7638
▁lcart	-7639
▁drogations	-7640
▁existante	-7641
▁soidisant	-7642
▁vrification	-7643
▁remplacement	-7644
▁bureaucratique	-7645
▁mix	-7646
▁dtaill	-7647
▁expriment	-7648
▁jy	-7649
▁chauff	-7650
▁dfinit	-7651
▁dcoulant	-7652
▁oprationnel	-7653
rot	-7654
▁rcu	-7655
lateurs	-7656
▁dinfra	-7657
cessions	-7658
▁montagne	-7659
▁amp	-7660
▁brve	-7661
▁abords	-7662
▁jouets	-7663
▁espoirs	-7664
ube	-7665
▁dpasser	-7666
▁ukraine	-7667
▁desquels	-7668
▁xxie	-7669
▁certi	-7670
▁volon	-7671
▁allous	-7672
▁collabo	-7673
▁volontiers	-7674
▁manipul	-7675
▁observe	-7676
▁accompagn	-7677
▁xnophobie	-7678
▁not	-7679
▁timor	-7680
▁rendue	-7681
▁appuyer	-7682
▁arbitra	-7683
▁flicitons	-7684
▁dcisioncadre	-7685
▁limplication	-7686
▁morte	-7687
quitude	-7688
▁radioa	-7689
▁ralenti	-7690
▁conjointe	-7691
▁viceprsidente	-7692
ano	-7693
▁arabe	-7694
▁anglais	-7695
▁concilier	-7696
▁mondiales	-7697
▁lassurance	-7698
▁permanence	-7699
▁alg	-7700
▁discr	-7701
▁conviendrait	-7702
▁vieillissement	-7703
▁nar	-7704
▁loff	-7705
▁cache	-7706
▁dmarches	-7707
▁hos	-7708
▁probable	-7709
▁deviendra	-7710
▁reposer	-7711
▁prvoyant	-7712
▁thon	-7713
▁motif	-7714
▁ralits	-7715
▁naturelle	-7716
▁partagent	-7717
▁intressante	-7718
▁linfrastructure	-7719
▁administratifs	-7720
▁laur	-7721
▁turcs	-7722
▁requises	-7723
▁retrouve	-7724
▁ravie	-7725
▁survi	-7726
▁scnari	-7727
▁approfondi	-7728
▁passep	-7729
▁estiment	-7730
▁crainte	-7731
ctuer	-7732
▁jeter	-7733
▁africaine	-7734
▁controvers	-7735
▁disponibilit	-7736
ansion	-7737
▁amener	-7738
▁dclen	-7739
▁inacceptables	-7740
▁gri	-7741
▁vux	-7742
trons	-7743
▁frag	-7744
▁ampleur	-7745
▁rchauff	-7746
banie	-7747
burant	-7748
▁olymp	-7749
▁recul	-7750
▁phrase	-7751
▁manuvre	-7752
▁compt	-7753
▁rendus	-7754
▁carburants	-7755
▁dfavorises	-7756
▁dte	-7757
▁lasile	-7758
▁concert	-7759
▁offrent	-7760
▁dentamer	-7761
▁ellesmmes	-7762
▁accessibles	-7763
▁vola	-7764
▁bnfique	-7765
▁daboutir	-7766
▁consulter	-7767
ke	-7768
▁stait	-7769
▁dactualit	-7770
anda	-7771
▁psych	-7772
▁requis	-7773
▁tomber	-7774
▁allait	-7775
▁possdent	-7776
▁ridi	-7777
▁sadapter	-7778
▁mad	-7779
▁saddam	-7780
nagement	-7781
▁bureaux	-7782
▁septime	-7783
▁infrieur	-7784
nergies	-7785
▁travaillant	-7786
▁gel	-7787
▁vac	-7788
▁industrielles	-7789
▁traditionnelles	-7790
▁svre	-7791
▁colla	-7792
▁ina	-7793
▁ineff	-7794
▁obligs	-7795
▁dopinion	-7796
▁soutiendra	-7797
aud	-7798
▁douanire	-7799
▁lidentit	-7800
▁notation	-7801
yde	-7802
▁neut	-7803
▁plat	-7804
▁hamas	-7805
▁arrivs	-7806
▁dsquili	-7807
▁dterminant	-7808
ommes	-7809
▁dposer	-7810
▁nullement	-7811
▁ln	-7812
▁bur	-7813
▁zro	-7814
▁inclut	-7815
fiant	-7816
▁donateurs	-7817
▁raisonnables	-7818
ash	-7819
chet	-7820
lrer	-7821
▁souffre	-7822
▁extension	-7823
▁intrimaire	-7824
arisation	-7825
▁transporteurs	-7826
▁chambre	-7827
▁serions	-7828
▁religieux	-7829
▁protectionnisme	-7830
dez	-7831
sia	-7832
▁dpose	-7833
▁moratoire	-7834
▁pc	-7835
▁cres	-7836
▁juges	-7837
▁minutie	-7838
▁valoir	-7839
rieurs	-7840
▁laffir	-7841
▁affects	-7842
▁concessions	-7843
▁blan	-7844
▁inciter	-7845
▁ressenti	-7846
▁supporter	-7847
▁fondes	-7848
▁sembletil	-7849
abe	-7850
quite	-7851
onique	-7852
▁voulait	-7853
▁anticip	-7854
▁continuons	-7855
▁pur	-7856
▁rins	-7857
▁guerres	-7858
▁rpondra	-7859
▁flu	-7860
▁asie	-7861
▁mcc	-7862
▁ton	-7863
▁illic	-7864
▁manant	-7865
▁pousse	-7866
▁daucune	-7867
▁ambition	-7868
▁sanitaire	-7869
▁mag	-7870
▁isralien	-7871
▁bilorussie	-7872
▁compliqu	-7873
▁prter	-7874
▁lgales	-7875
▁davenir	-7876
▁parallle	-7877
▁rfrendums	-7878
▁lettonie	-7879
▁universit	-7880
▁enta	-7881
▁rserv	-7882
▁tardi	-7883
▁labore	-7884
▁amrique	-7885
▁immdiat	-7886
▁prvoient	-7887
▁rpondent	-7888
▁parvenons	-7889
▁dengagement	-7890
▁dimportants	-7891
ria	-7892
▁couverts	-7893
▁tablissements	-7894
▁mat	-7895
▁listes	-7896
▁tienne	-7897
▁ouverts	-7898
atrices	-7899
▁dmocraties	-7900
▁fact	-7901
ington	-7902
▁alloc	-7903
▁attaquer	-7904
▁gi	-7905
▁dite	-7906
▁prestations	-7907
discri	-7908
▁tourne	-7909
▁essayons	-7910
▁messages	-7911
▁rcession	-7912
▁entendons	-7913
▁dharmonisation	-7914
utique	-7915
▁injuste	-7916
▁passion	-7917
▁ouvertement	-7918
▁causs	-7919
▁artifici	-7920
▁conducteurs	-7921
▁limportation	-7922
uma	-7923
▁dot	-7924
▁lectriques	-7925
▁simultanment	-7926
▁dpar	-7927
▁suspens	-7928
▁consacrs	-7929
▁coupables	-7930
deau	-7931
ourge	-7932
▁demb	-7933
▁librer	-7934
▁fournies	-7935
tins	-7936
▁axe	-7937
▁coex	-7938
▁audiovis	-7939
▁reporter	-7940
▁disparatre	-7941
▁suggestion	-7942
case	-7943
▁daccomp	-7944
▁connue	-7945
▁phnomnes	-7946
▁cherchent	-7947
▁prsidences	-7948
▁comprhensible	-7949
▁difficilement	-7950
▁privatisation	-7951
▁dpt	-7952
▁flau	-7953
propor	-7954
▁bille	-7955
▁passons	-7956
▁dapprouver	-7957
▁impatience	-7958
▁dexploitation	-7959
sa	-7960
ffe	-7961
▁aot	-7962
▁symbo	-7963
▁mettra	-7964
▁lcole	-7965
▁lautom	-7966
▁dispropor	-7967
▁rglementaires	-7968
vic	-7969
▁	-7970
e	-7971
s	-7972
n	-7973
i	-7974
t	-7975
r	-7976
a	-7977
o	-7978
u	-7979
l	-7980
d	-7981
c	-7982
p	-7983
m	-7984
v	-7985
q	-7986
f	-7987
g	-7988
b	-7989
h	-7990
j	-7991
x	-7992
y	-7993
z	-7994
k	-7995
w	-7996
